const unsigned char model[] = {
  0x1c, 0x00, 0x00, 0x00, 0x54, 0x46, 0x4c, 0x33, 0x14, 0x00, 0x20, 0x00,
  0x1c, 0x00, 0x18, 0x00, 0x14, 0x00, 0x10, 0x00, 0x0c, 0x00, 0x00, 0x00,
  0x08, 0x00, 0x04, 0x00, 0x14, 0x00, 0x00, 0x00, 0x1c, 0x00, 0x00, 0x00,
  0x98, 0x00, 0x00, 0x00, 0xf0, 0x00, 0x00, 0x00, 0x84, 0x0e, 0x00, 0x00,
  0x94, 0x0e, 0x00, 0x00, 0xa0, 0x14, 0x00, 0x00, 0x03, 0x00, 0x00, 0x00,
  0x01, 0x00, 0x00, 0x00, 0x10, 0x00, 0x00, 0x00, 0x00, 0x00, 0x0a, 0x00,
  0x10, 0x00, 0x0c, 0x00, 0x08, 0x00, 0x04, 0x00, 0x0a, 0x00, 0x00, 0x00,
  0x0c, 0x00, 0x00, 0x00, 0x1c, 0x00, 0x00, 0x00, 0x3c, 0x00, 0x00, 0x00,
  0x0f, 0x00, 0x00, 0x00, 0x73, 0x65, 0x72, 0x76, 0x69, 0x6e, 0x67, 0x5f,
  0x64, 0x65, 0x66, 0x61, 0x75, 0x6c, 0x74, 0x00, 0x01, 0x00, 0x00, 0x00,
  0x04, 0x00, 0x00, 0x00, 0x90, 0xff, 0xff, 0xff, 0x0a, 0x00, 0x00, 0x00,
  0x04, 0x00, 0x00, 0x00, 0x08, 0x00, 0x00, 0x00, 0x6f, 0x75, 0x74, 0x70,
  0x75, 0x74, 0x5f, 0x30, 0x00, 0x00, 0x00, 0x00, 0x01, 0x00, 0x00, 0x00,
  0x04, 0x00, 0x00, 0x00, 0x62, 0xf1, 0xff, 0xff, 0x04, 0x00, 0x00, 0x00,
  0x0c, 0x00, 0x00, 0x00, 0x6b, 0x65, 0x72, 0x61, 0x73, 0x5f, 0x74, 0x65,
  0x6e, 0x73, 0x6f, 0x72, 0x00, 0x00, 0x00, 0x00, 0x02, 0x00, 0x00, 0x00,
  0x34, 0x00, 0x00, 0x00, 0x04, 0x00, 0x00, 0x00, 0xdc, 0xff, 0xff, 0xff,
  0x0d, 0x00, 0x00, 0x00, 0x04, 0x00, 0x00, 0x00, 0x13, 0x00, 0x00, 0x00,
  0x43, 0x4f, 0x4e, 0x56, 0x45, 0x52, 0x53, 0x49, 0x4f, 0x4e, 0x5f, 0x4d,
  0x45, 0x54, 0x41, 0x44, 0x41, 0x54, 0x41, 0x00, 0x08, 0x00, 0x0c, 0x00,
  0x08, 0x00, 0x04, 0x00, 0x08, 0x00, 0x00, 0x00, 0x0c, 0x00, 0x00, 0x00,
  0x04, 0x00, 0x00, 0x00, 0x13, 0x00, 0x00, 0x00, 0x6d, 0x69, 0x6e, 0x5f,
  0x72, 0x75, 0x6e, 0x74, 0x69, 0x6d, 0x65, 0x5f, 0x76, 0x65, 0x72, 0x73,
  0x69, 0x6f, 0x6e, 0x00, 0x0e, 0x00, 0x00, 0x00, 0x90, 0x0d, 0x00, 0x00,
  0x88, 0x0d, 0x00, 0x00, 0x5c, 0x0d, 0x00, 0x00, 0x38, 0x0d, 0x00, 0x00,
  0x9c, 0x0c, 0x00, 0x00, 0xe8, 0x0a, 0x00, 0x00, 0x00, 0x01, 0x00, 0x00,
  0xb4, 0x00, 0x00, 0x00, 0xac, 0x00, 0x00, 0x00, 0xa4, 0x00, 0x00, 0x00,
  0x9c, 0x00, 0x00, 0x00, 0x94, 0x00, 0x00, 0x00, 0x74, 0x00, 0x00, 0x00,
  0x04, 0x00, 0x00, 0x00, 0x16, 0xf2, 0xff, 0xff, 0x04, 0x00, 0x00, 0x00,
  0x60, 0x00, 0x00, 0x00, 0x10, 0x00, 0x00, 0x00, 0x00, 0x00, 0x00, 0x00,
  0x08, 0x00, 0x0e, 0x00, 0x08, 0x00, 0x04, 0x00, 0x08, 0x00, 0x00, 0x00,
  0x10, 0x00, 0x00, 0x00, 0x24, 0x00, 0x00, 0x00, 0x00, 0x00, 0x06, 0x00,
  0x08, 0x00, 0x04, 0x00, 0x06, 0x00, 0x00, 0x00, 0x04, 0x00, 0x00, 0x00,
  0x00, 0x00, 0x00, 0x00, 0x0c, 0x00, 0x18, 0x00, 0x14, 0x00, 0x10, 0x00,
  0x0c, 0x00, 0x04, 0x00, 0x0c, 0x00, 0x00, 0x00, 0x59, 0x3e, 0x0d, 0x1d,
  0xeb, 0xf9, 0x89, 0x57, 0x02, 0x00, 0x00, 0x00, 0x02, 0x00, 0x00, 0x00,
  0x04, 0x00, 0x00, 0x00, 0x06, 0x00, 0x00, 0x00, 0x32, 0x2e, 0x32, 0x31,
  0x2e, 0x30, 0x00, 0x00, 0x82, 0xf2, 0xff, 0xff, 0x04, 0x00, 0x00, 0x00,
  0x10, 0x00, 0x00, 0x00, 0x31, 0x2e, 0x35, 0x2e, 0x30, 0x00, 0x00, 0x00,
  0x00, 0x00, 0x00, 0x00, 0x00, 0x00, 0x00, 0x00, 0x40, 0xed, 0xff, 0xff,
  0x44, 0xed, 0xff, 0xff, 0x48, 0xed, 0xff, 0xff, 0x4c, 0xed, 0xff, 0xff,
  0xae, 0xf2, 0xff, 0xff, 0x04, 0x00, 0x00, 0x00, 0x3c, 0x00, 0x00, 0x00,
  0x30, 0xc9, 0x8c, 0xbb, 0x9e, 0x86, 0xff, 0x3d, 0x50, 0x02, 0x8c, 0xbd,
  0x00, 0x00, 0x00, 0x00, 0xc2, 0xcc, 0x2b, 0x3e, 0x00, 0x00, 0x00, 0x00,
  0x8b, 0x3f, 0x9d, 0x3c, 0x43, 0xd4, 0xdc, 0x3d, 0x1e, 0xc1, 0x00, 0xbd,
  0x00, 0x00, 0x00, 0x00, 0x7a, 0x65, 0xdf, 0xbd, 0xee, 0x73, 0xb0, 0x3b,
  0xc0, 0x4d, 0x10, 0x3d, 0x00, 0x00, 0x00, 0x00, 0x0c, 0x55, 0x08, 0x3e,
  0xf6, 0xf2, 0xff, 0xff, 0x04, 0x00, 0x00, 0x00, 0xd8, 0x09, 0x00, 0x00,
  0x86, 0x0d, 0x0d, 0xbe, 0x8c, 0x2b, 0x88, 0x3e, 0x5e, 0xf1, 0xcb, 0xbe,
  0xb8, 0x90, 0x86, 0xbe, 0xa2, 0xd6, 0x30, 0xbe, 0x79, 0x03, 0x95, 0x3e,
  0x81, 0x32, 0x22, 0x3f, 0x19, 0xd5, 0x1c, 0x3e, 0x63, 0x28, 0xcd, 0x3f,
  0xd3, 0x35, 0x72, 0x3e, 0x0b, 0xaf, 0x80, 0xbf, 0x9c, 0xf3, 0x1b, 0x3f,
  0xf9, 0xd4, 0x06, 0x3f, 0x0c, 0x8d, 0xb1, 0x3f, 0x9b, 0x5f, 0x95, 0x3e,
  0x82, 0x5a, 0xc8, 0xbe, 0x89, 0x58, 0x39, 0x3e, 0x68, 0xaa, 0x53, 0xbe,
  0x6f, 0xbc, 0x7b, 0xbb, 0xe6, 0xec, 0xec, 0xbe, 0x1a, 0x2e, 0x98, 0xbd,
  0x24, 0x65, 0x74, 0xbe, 0xb2, 0x9c, 0x92, 0x3f, 0x2a, 0x6a, 0x88, 0xbe,
  0x96, 0x13, 0x11, 0xbe, 0xeb, 0xd0, 0x0a, 0x3e, 0x60, 0x01, 0x59, 0xbc,
  0xb3, 0x74, 0x07, 0x3f, 0xb4, 0x97, 0x84, 0x3e, 0xf8, 0x4d, 0x28, 0xbf,
  0xd3, 0x00, 0x1e, 0x3e, 0x8b, 0x72, 0xea, 0x3e, 0x39, 0x5e, 0xda, 0x3d,
  0xf2, 0x2d, 0x19, 0x3e, 0xf9, 0xc7, 0x06, 0xbe, 0x52, 0xde, 0x0d, 0xbe,
  0xb8, 0xc2, 0xaa, 0x3f, 0x70, 0xf8, 0x39, 0x3e, 0xe3, 0x30, 0xec, 0xbe,
  0xa5, 0x4f, 0x7d, 0x3c, 0x20, 0xc5, 0x6d, 0x3d, 0x58, 0x0a, 0x9e, 0x3f,
  0x25, 0xfe, 0x25, 0xbf, 0x45, 0x04, 0x5e, 0xbf, 0xdf, 0x11, 0x1f, 0xbf,
  0x29, 0xb3, 0xb8, 0xbd, 0xaa, 0x50, 0xa9, 0xbe, 0xfe, 0x0c, 0xf7, 0x3c,
  0xba, 0x25, 0x3c, 0xbf, 0xc7, 0xdb, 0xbc, 0xbd, 0x50, 0x1d, 0x9d, 0x3e,
  0x33, 0x89, 0x6b, 0x3e, 0x53, 0xb1, 0x01, 0xbf, 0x3e, 0x3c, 0xb1, 0x3e,
  0x13, 0x08, 0x03, 0xbf, 0x64, 0x5b, 0x06, 0xbf, 0x9d, 0xf9, 0x0f, 0x3e,
  0xef, 0x8c, 0xbe, 0xbe, 0x8e, 0xd4, 0x5c, 0x3e, 0x23, 0x5c, 0x1d, 0x3f,
  0x9b, 0xce, 0x16, 0x3e, 0xa7, 0x23, 0xce, 0xbe, 0x38, 0x2d, 0x38, 0x3d,
  0xbf, 0x3f, 0x67, 0x3e, 0x31, 0x5a, 0x08, 0x3f, 0x4a, 0x42, 0x57, 0xbe,
  0xa2, 0xbe, 0x3e, 0x3e, 0x63, 0xa8, 0x93, 0x3e, 0xe8, 0xe4, 0x73, 0x3d,
  0x48, 0xea, 0xd9, 0xba, 0x55, 0x1e, 0x85, 0x3e, 0x02, 0x8e, 0xb3, 0x3e,
  0x72, 0xe1, 0xbb, 0xbd, 0xbc, 0x38, 0xbe, 0x3e, 0x24, 0xd0, 0xcd, 0x3e,
  0xa4, 0x13, 0x2d, 0x3e, 0x86, 0x7a, 0xaf, 0x3e, 0x6f, 0xf1, 0x11, 0x3d,
  0x50, 0xdf, 0x61, 0x3f, 0x41, 0xb7, 0x95, 0xbd, 0x48, 0x4d, 0x25, 0xbe,
  0x7d, 0x7d, 0x9d, 0x3d, 0x3d, 0xc9, 0x57, 0xbe, 0x62, 0xac, 0xa7, 0x3e,
  0x37, 0x56, 0x1b, 0x3f, 0xc1, 0xb9, 0x2d, 0x3f, 0x70, 0x56, 0xad, 0x3d,
  0x60, 0x6e, 0xe4, 0x3e, 0xf6, 0xf6, 0xa6, 0x3e, 0x2f, 0xf2, 0xcb, 0xbc,
  0x5a, 0xb3, 0xfd, 0x3e, 0x69, 0x76, 0x95, 0x3d, 0x49, 0xf5, 0x5b, 0x3f,
  0xf3, 0xd5, 0x8a, 0x3e, 0x36, 0xaf, 0x84, 0xbf, 0xc5, 0x21, 0x7b, 0x3e,
  0x19, 0x24, 0x95, 0x3e, 0xe7, 0xad, 0x46, 0x3f, 0xef, 0xdc, 0xd7, 0x3e,
  0xd7, 0xae, 0x43, 0x3f, 0x20, 0x03, 0x70, 0x3e, 0xd1, 0xb0, 0xbc, 0xbd,
  0xdf, 0x0b, 0x29, 0x3f, 0x69, 0x4b, 0x44, 0xbe, 0x83, 0x33, 0x22, 0x3f,
  0x67, 0x9c, 0xb0, 0xbe, 0x00, 0x78, 0x47, 0xbe, 0x93, 0x24, 0x74, 0x3e,
  0x99, 0x0e, 0xa8, 0xbe, 0x5d, 0xc3, 0x71, 0xbe, 0xc6, 0x14, 0x23, 0x3e,
  0x01, 0x69, 0xe9, 0xbe, 0x9b, 0x42, 0x66, 0xbe, 0x7e, 0xc8, 0x41, 0xbf,
  0x7c, 0xe7, 0x83, 0xbd, 0x29, 0xd2, 0x20, 0x3e, 0x55, 0x82, 0x62, 0xbe,
  0xd8, 0x07, 0x38, 0x3d, 0xfd, 0xb0, 0x46, 0xbf, 0x43, 0xec, 0x18, 0x3e,
  0x26, 0xe0, 0x09, 0x3f, 0xd8, 0x0b, 0xc3, 0xbe, 0x9e, 0x95, 0xba, 0xbe,
  0xcf, 0xc5, 0x48, 0xbe, 0x88, 0xd7, 0x97, 0xbd, 0xf8, 0x35, 0xd3, 0xbd,
  0xf0, 0x46, 0xe5, 0x3c, 0x99, 0xc0, 0x93, 0x3e, 0x26, 0x90, 0x4b, 0x3e,
  0x20, 0xda, 0x8a, 0x3c, 0x11, 0x9d, 0x4b, 0xbe, 0xa1, 0x44, 0x38, 0xbe,
  0x5a, 0xac, 0x72, 0x3e, 0x48, 0xe6, 0x42, 0xbd, 0xab, 0x8e, 0x8c, 0xbe,
  0x76, 0x07, 0x13, 0x3e, 0xda, 0x38, 0xb2, 0xbd, 0x2b, 0xe1, 0x9e, 0xbe,
  0x94, 0x5e, 0x01, 0x3e, 0x1a, 0x33, 0x2c, 0xbe, 0x60, 0x51, 0xb7, 0xbc,
  0x87, 0x16, 0x24, 0xbe, 0xe6, 0x45, 0x5e, 0xbe, 0x40, 0x6c, 0x54, 0xbe,
  0xf4, 0x7f, 0xa4, 0x3d, 0x76, 0x77, 0x66, 0x3e, 0xd9, 0x66, 0x21, 0xbe,
  0x5f, 0x37, 0x23, 0xbe, 0x00, 0xb7, 0x93, 0xbe, 0x3e, 0x2d, 0x78, 0x3e,
  0x40, 0x60, 0x69, 0x3c, 0x10, 0x29, 0x82, 0xbc, 0x81, 0xc5, 0x2f, 0xbe,
  0xd4, 0xe8, 0x36, 0xbe, 0xf3, 0xeb, 0x44, 0xbe, 0xe0, 0x4b, 0x3f, 0x3d,
  0x45, 0xfe, 0x99, 0xbe, 0x04, 0x58, 0x8d, 0xbd, 0x9e, 0xff, 0x3a, 0x3e,
  0x42, 0x8c, 0x5d, 0xbe, 0xf0, 0x04, 0xa3, 0x3c, 0xb1, 0x1b, 0x91, 0x3e,
  0xd4, 0x98, 0x81, 0xbd, 0x24, 0xa6, 0xa2, 0xbe, 0x11, 0xe9, 0x9e, 0x3e,
  0xb3, 0x72, 0x78, 0xbe, 0x4e, 0xde, 0xa8, 0xbd, 0xc0, 0x3c, 0x98, 0xbb,
  0xb7, 0xf3, 0xd8, 0xbe, 0xff, 0x9c, 0x9e, 0x3f, 0x45, 0xb9, 0xdc, 0xbe,
  0x15, 0xbc, 0x7e, 0xbf, 0xd1, 0xa3, 0x5f, 0x3d, 0x53, 0x5b, 0xa1, 0xbd,
  0xfb, 0x89, 0x1d, 0xbe, 0x33, 0x06, 0x61, 0x3d, 0xfc, 0x5f, 0x39, 0xbf,
  0x36, 0x5b, 0x81, 0x3e, 0xe7, 0x97, 0x45, 0x3f, 0x04, 0x02, 0xcc, 0x3e,
  0x13, 0xb0, 0x9b, 0xbe, 0xba, 0x65, 0x82, 0xbf, 0x55, 0xab, 0x75, 0xbe,
  0x81, 0x43, 0x24, 0x3f, 0x18, 0xc7, 0x44, 0xbd, 0xeb, 0xa6, 0x0a, 0xbf,
  0x1f, 0xdd, 0x04, 0x3d, 0x7e, 0xfe, 0x5a, 0x3d, 0x46, 0x93, 0x00, 0xbe,
  0x84, 0x3b, 0xe5, 0x3e, 0x00, 0xe6, 0x9d, 0x3f, 0xf3, 0x81, 0x47, 0x3c,
  0x31, 0x4c, 0xad, 0xbc, 0x04, 0x1a, 0x42, 0x3e, 0x90, 0x8d, 0x89, 0x3c,
  0x56, 0x2f, 0xf3, 0x3d, 0xd4, 0x5e, 0x84, 0x3d, 0xe8, 0xc8, 0xe9, 0x3f,
  0x6c, 0xf7, 0x6d, 0x3e, 0xe4, 0xcd, 0x03, 0xbd, 0x13, 0xd3, 0x26, 0x3f,
  0x72, 0xfa, 0x3c, 0x3e, 0x13, 0x0b, 0xa7, 0x3f, 0xb8, 0x25, 0x83, 0x3e,
  0xd1, 0x4e, 0x4b, 0x3e, 0xef, 0xcc, 0xdd, 0x3e, 0x17, 0xa8, 0x5d, 0xbd,
  0x67, 0x23, 0x76, 0x3e, 0x28, 0x4a, 0x0f, 0x3e, 0xb1, 0xba, 0xdc, 0x3c,
  0xa0, 0xe1, 0xe0, 0xbc, 0xda, 0x12, 0x60, 0xbe, 0xf2, 0xf2, 0x77, 0x3e,
  0xd7, 0xf0, 0x8c, 0x3e, 0xb4, 0xe0, 0x30, 0x3e, 0x98, 0x6b, 0x66, 0x3d,
  0xc3, 0x30, 0x20, 0xbe, 0xd4, 0x98, 0x07, 0x3e, 0x55, 0xcd, 0x0f, 0xbe,
  0x5f, 0xc2, 0x98, 0x3e, 0xf1, 0xbb, 0x8b, 0xbe, 0x4b, 0xf2, 0xa5, 0xbe,
  0x5e, 0x8a, 0x47, 0x3e, 0x50, 0x53, 0x53, 0x3d, 0x0c, 0xc0, 0x19, 0xbe,
  0x98, 0xb2, 0x29, 0x3e, 0x36, 0x68, 0x17, 0xbe, 0x8c, 0x52, 0xdd, 0xbd,
  0x2e, 0xe5, 0x77, 0x3e, 0xfc, 0xb5, 0x98, 0xbd, 0xbb, 0xc8, 0x83, 0x3e,
  0xf9, 0xaa, 0x11, 0xbe, 0x0c, 0x92, 0xcd, 0xbd, 0x15, 0x8e, 0x89, 0xbe,
  0x42, 0xd7, 0x6f, 0x3e, 0x75, 0x29, 0x98, 0xbe, 0xf0, 0xc1, 0x4c, 0xbe,
  0x73, 0x23, 0x93, 0x3e, 0x88, 0x5b, 0x08, 0x3e, 0x6e, 0xf2, 0x02, 0x3e,
  0xaa, 0x27, 0xa3, 0xbe, 0xf0, 0x63, 0x7c, 0xbe, 0x80, 0xb7, 0x41, 0x3b,
  0x0f, 0xd5, 0x95, 0x3e, 0x63, 0x93, 0x99, 0x3e, 0x09, 0xaf, 0x9a, 0x3e,
  0xa4, 0x3d, 0xfd, 0xbd, 0x46, 0x6a, 0x2f, 0xbe, 0x00, 0x9f, 0xf7, 0x3b,
  0xb8, 0x92, 0x4f, 0xbd, 0x02, 0x88, 0x05, 0xbe, 0x40, 0x81, 0x13, 0x3d,
  0x83, 0xce, 0x10, 0x3f, 0xa9, 0x5d, 0x73, 0xbf, 0xb1, 0x14, 0x36, 0x3e,
  0x8e, 0x14, 0x59, 0x3f, 0x2a, 0x1f, 0xb6, 0xbe, 0x19, 0x0e, 0x36, 0x3b,
  0xa2, 0xf4, 0x4a, 0xbf, 0x2e, 0xea, 0xd4, 0xbe, 0xa0, 0xde, 0xe8, 0x3e,
  0x71, 0xdf, 0x28, 0xbe, 0x81, 0x4d, 0x99, 0xbf, 0xd4, 0xde, 0x30, 0x3e,
  0xf9, 0xd8, 0xf8, 0xbe, 0xfc, 0x4b, 0xbe, 0xbe, 0xa5, 0x13, 0x05, 0x3f,
  0x45, 0x91, 0x15, 0x3d, 0x62, 0x9d, 0xc9, 0x3d, 0x70, 0xc1, 0x7c, 0x3d,
  0xa8, 0x33, 0xc6, 0x3e, 0x4b, 0x3e, 0xd5, 0xbd, 0xad, 0xc9, 0x69, 0x3d,
  0xb5, 0x08, 0xaf, 0x3e, 0x82, 0xc1, 0x13, 0xbf, 0x2c, 0x9b, 0x81, 0xbe,
  0xbc, 0xcf, 0x9d, 0xbd, 0x8f, 0xbf, 0x31, 0x3e, 0x00, 0x6f, 0x0d, 0x3d,
  0x7b, 0xb1, 0x8c, 0x3c, 0xfc, 0xa0, 0xfe, 0xbd, 0xe3, 0xbc, 0xb2, 0xbe,
  0xdc, 0x29, 0x66, 0xbe, 0x72, 0x00, 0x1d, 0x3e, 0xd0, 0xb4, 0xf7, 0x3d,
  0x02, 0x05, 0x50, 0x3e, 0x9b, 0xed, 0x3e, 0xbf, 0x0c, 0xb0, 0xb4, 0xbd,
  0x57, 0xd8, 0x45, 0xbd, 0x1a, 0x66, 0x18, 0xbe, 0xaf, 0x48, 0x99, 0x3d,
  0xd3, 0xd9, 0x47, 0xbd, 0x1f, 0xd7, 0x80, 0xbe, 0x04, 0xc1, 0x1d, 0xbf,
  0xbe, 0x93, 0xe4, 0x3c, 0x34, 0xa6, 0x8e, 0x3f, 0x1b, 0x0b, 0xff, 0xbe,
  0x24, 0x21, 0x1a, 0xbf, 0x1e, 0x44, 0x50, 0xbe, 0x67, 0xae, 0x27, 0xbd,
  0xd3, 0x2f, 0x5e, 0x3d, 0x04, 0xfb, 0xac, 0xbd, 0xdd, 0xbb, 0x7c, 0xbe,
  0x13, 0xc7, 0xff, 0x3d, 0x73, 0x65, 0xaa, 0xbd, 0xe2, 0xea, 0xb7, 0x3d,
  0xcc, 0x29, 0xb1, 0xbe, 0xe3, 0xf3, 0x80, 0xbf, 0x87, 0xbf, 0x7c, 0xbe,
  0x07, 0xac, 0x8f, 0x3f, 0x84, 0x0c, 0x8c, 0x3e, 0xcd, 0x11, 0x10, 0xbf,
  0x46, 0x70, 0xe9, 0x3e, 0xa7, 0x10, 0xd2, 0xbd, 0x43, 0x0b, 0x82, 0x3e,
  0x81, 0xab, 0x47, 0xbe, 0x8c, 0xc9, 0x21, 0x3f, 0xc2, 0x58, 0x8d, 0x3e,
  0xf5, 0x91, 0x0f, 0xbd, 0x2a, 0x36, 0xa6, 0x3e, 0xce, 0x14, 0x3d, 0x3e,
  0x73, 0x6c, 0x63, 0x3e, 0x7c, 0x33, 0x35, 0x3e, 0xfe, 0x5c, 0x88, 0x3f,
  0x5a, 0xb0, 0xa4, 0x3e, 0x52, 0xbd, 0x86, 0xbe, 0x5e, 0x09, 0x21, 0x3e,
  0x60, 0x82, 0xcc, 0xbc, 0x8b, 0x77, 0xff, 0x3e, 0xe4, 0x22, 0x87, 0x3e,
  0xcd, 0xcb, 0x52, 0xbd, 0x32, 0x0c, 0xd2, 0x3e, 0x65, 0xcb, 0xfc, 0xbd,
  0xfe, 0xb1, 0x6e, 0x3e, 0x4e, 0x40, 0x45, 0x3e, 0x45, 0x46, 0x26, 0xbf,
  0xf2, 0x6b, 0x94, 0x3e, 0x5d, 0x4b, 0x91, 0x3f, 0xa0, 0xfb, 0x9c, 0x3e,
  0xc2, 0xf8, 0x63, 0xbf, 0x2c, 0x43, 0x40, 0x3f, 0x66, 0x8a, 0xf2, 0xbd,
  0xcd, 0xf7, 0x56, 0x3f, 0x4b, 0xa5, 0x96, 0x3d, 0xe2, 0xfe, 0xe3, 0x3e,
  0x19, 0xfe, 0xa7, 0x3e, 0xb7, 0x29, 0x0f, 0xbf, 0x67, 0x16, 0xc7, 0x3e,
  0xf9, 0x7c, 0x30, 0x3f, 0x28, 0x19, 0x51, 0x3f, 0xcb, 0x5a, 0x53, 0xbe,
  0x3c, 0x43, 0xd0, 0xbd, 0x02, 0x2f, 0x16, 0xbe, 0x64, 0x7e, 0xcf, 0xbe,
  0x9d, 0x4b, 0x15, 0xbe, 0xf4, 0xf0, 0xe2, 0x3e, 0xa7, 0x81, 0xf3, 0xbd,
  0x9e, 0xcd, 0xb3, 0xbe, 0xd8, 0x3b, 0x17, 0x3f, 0x15, 0x14, 0x58, 0x3d,
  0xfb, 0xbb, 0x0c, 0xbe, 0x52, 0x93, 0xb3, 0x3e, 0x90, 0x24, 0x8f, 0x3d,
  0x55, 0xa6, 0xb4, 0x3c, 0x9f, 0xb1, 0x83, 0xbd, 0xc4, 0xfb, 0x70, 0xbe,
  0xae, 0x9e, 0x33, 0xbe, 0x19, 0x61, 0xd3, 0x3d, 0x99, 0x8a, 0xa6, 0xbe,
  0x80, 0x81, 0x22, 0x3b, 0xc8, 0x63, 0x15, 0x3e, 0x55, 0xa6, 0x25, 0x3e,
  0xfb, 0x40, 0xc7, 0x3e, 0xcd, 0x80, 0x11, 0x3e, 0x6a, 0x64, 0x97, 0xbe,
  0x53, 0x83, 0x05, 0xbe, 0x08, 0xf2, 0xec, 0xbd, 0xce, 0xbd, 0x25, 0x3f,
  0x4a, 0xad, 0x40, 0x3e, 0x80, 0x67, 0xe4, 0x3d, 0x82, 0x5b, 0x03, 0x3e,
  0xc3, 0x78, 0x26, 0xbe, 0x40, 0x80, 0xd6, 0x3c, 0x06, 0x19, 0x53, 0xbe,
  0x28, 0x5c, 0xe8, 0x3d, 0x54, 0xbd, 0x85, 0xbe, 0x20, 0xb4, 0xdc, 0xbc,
  0x7a, 0xf5, 0x89, 0xbe, 0xfe, 0xe5, 0x69, 0x3e, 0x7a, 0x09, 0x40, 0x3e,
  0x98, 0x01, 0x23, 0xbd, 0xa5, 0xa7, 0x9f, 0x3e, 0x70, 0x71, 0x8d, 0xbc,
  0x1c, 0x87, 0x8f, 0xbd, 0xa0, 0xb0, 0x15, 0x3c, 0xd0, 0xff, 0x5e, 0xbd,
  0xea, 0x1f, 0x38, 0x3e, 0xa2, 0x02, 0x64, 0xbe, 0x86, 0x38, 0x57, 0x3e,
  0x3b, 0xc4, 0x93, 0x3e, 0x5c, 0xf3, 0xdc, 0x3d, 0xda, 0xe0, 0x55, 0x3e,
  0xaf, 0x63, 0x4f, 0xbe, 0xfa, 0x87, 0x66, 0x3e, 0x00, 0xd7, 0xd0, 0xba,
  0xd8, 0x67, 0x2c, 0x3e, 0x1e, 0x7b, 0x5b, 0x3e, 0xbc, 0xcd, 0x83, 0x3d,
  0xc1, 0xac, 0x84, 0xbe, 0xfe, 0xe3, 0x88, 0xbe, 0x20, 0x08, 0xa3, 0xbe,
  0x76, 0x30, 0x7d, 0x3e, 0x70, 0xa8, 0xdb, 0xbc, 0x4c, 0x78, 0xd8, 0xbd,
  0x63, 0xb3, 0x98, 0xbe, 0x76, 0x54, 0xa5, 0xbe, 0x8c, 0xe9, 0x9f, 0xbe,
  0xe4, 0x6e, 0x4a, 0xbe, 0x80, 0xe4, 0xa0, 0x3c, 0x50, 0xbd, 0x22, 0xbd,
  0x41, 0x50, 0xed, 0x3e, 0x15, 0x1f, 0xbb, 0xbe, 0xfd, 0x19, 0xd3, 0x3e,
  0x54, 0x77, 0xd0, 0x3e, 0x68, 0x8e, 0x08, 0x3f, 0x37, 0xa0, 0x7c, 0xbe,
  0x57, 0x77, 0x93, 0x3e, 0x0d, 0x8c, 0x53, 0xbe, 0x8d, 0x63, 0xb3, 0x3f,
  0x68, 0x79, 0x0d, 0x3e, 0x8a, 0x53, 0xf9, 0xbe, 0xc1, 0xe8, 0xba, 0x3d,
  0xfe, 0x73, 0x0b, 0x3f, 0xa4, 0xcf, 0xa8, 0x3f, 0x72, 0x6a, 0xf1, 0xbc,
  0x80, 0x9e, 0x4e, 0xbf, 0x33, 0x3a, 0xb2, 0x3e, 0x02, 0x74, 0xde, 0x3e,
  0x78, 0x74, 0x80, 0xbe, 0xe5, 0xcb, 0x87, 0xbe, 0x4d, 0x34, 0x15, 0x3e,
  0xd9, 0xa8, 0x9f, 0x3c, 0x8e, 0x45, 0x50, 0xbe, 0x1b, 0xe0, 0x4d, 0x3e,
  0x3c, 0x75, 0x5e, 0xbd, 0xfd, 0x6a, 0x52, 0x3c, 0x40, 0xcd, 0x97, 0x3c,
  0x11, 0xa1, 0x2b, 0xbe, 0x50, 0x5c, 0xd7, 0xbe, 0x69, 0x03, 0x85, 0xbf,
  0x81, 0x5c, 0x4d, 0xbe, 0x38, 0x08, 0x1b, 0x3f, 0xc4, 0xe4, 0xdb, 0xbe,
  0x5f, 0x08, 0x00, 0xbe, 0x33, 0x09, 0x08, 0xbf, 0xbf, 0x25, 0x57, 0x3e,
  0x4b, 0x37, 0x95, 0x3f, 0x4c, 0xf7, 0xc7, 0xbb, 0xd0, 0xf5, 0x87, 0xbe,
  0xae, 0x77, 0x0c, 0x3e, 0x4e, 0xc6, 0x4c, 0x3e, 0xe3, 0xea, 0x13, 0x3f,
  0xff, 0x87, 0x69, 0xbe, 0x47, 0x8f, 0xa8, 0x3e, 0x0f, 0x55, 0x55, 0x3e,
  0x0a, 0xc7, 0x40, 0x3e, 0x2e, 0xf5, 0xaa, 0x3e, 0x45, 0x8d, 0x62, 0x3e,
  0x79, 0x92, 0x33, 0x3f, 0xe2, 0x5b, 0xe4, 0x3e, 0x3c, 0x95, 0xd6, 0x3e,
  0xeb, 0x30, 0x20, 0x3f, 0xea, 0x66, 0x80, 0x3f, 0xa2, 0x65, 0x77, 0x3e,
  0xbf, 0xfc, 0x4e, 0x3e, 0x3c, 0x3e, 0x50, 0x3f, 0x09, 0x2c, 0xdc, 0xbe,
  0x3d, 0xbc, 0xae, 0xbf, 0x0d, 0x8e, 0x02, 0xbc, 0xcf, 0x86, 0x25, 0x3f,
  0x02, 0x29, 0x2f, 0xbf, 0x40, 0x36, 0x99, 0x3d, 0xaf, 0xb2, 0x88, 0xbf,
  0x88, 0x97, 0x97, 0x3e, 0xd4, 0xfc, 0x1f, 0x3f, 0xc3, 0x44, 0x29, 0x3e,
  0xdc, 0x70, 0x85, 0xbe, 0xb0, 0xf8, 0x66, 0xbe, 0xc0, 0x58, 0x35, 0xbe,
  0x34, 0x8d, 0x15, 0x3e, 0x60, 0xd1, 0x4d, 0x3e, 0x79, 0x16, 0xae, 0xbf,
  0x52, 0x3d, 0x17, 0xbe, 0xf9, 0x21, 0x74, 0x3e, 0x71, 0x58, 0x41, 0xbe,
  0x9e, 0xe2, 0x1c, 0x3e, 0x0d, 0x0f, 0xe9, 0x3c, 0x29, 0xf9, 0xb3, 0x3d,
  0x88, 0xca, 0x33, 0x3f, 0x25, 0x0b, 0x43, 0xbe, 0xce, 0x21, 0xc3, 0x3d,
  0x9a, 0x1f, 0x25, 0x3e, 0x18, 0x58, 0xf1, 0xbd, 0xe0, 0xe6, 0x83, 0x3f,
  0x4c, 0xb2, 0x38, 0xbf, 0xe3, 0x00, 0x1a, 0x3f, 0x49, 0xbc, 0xe9, 0xbe,
  0xa0, 0x1f, 0x8f, 0xbf, 0x02, 0x62, 0x45, 0x3e, 0xc6, 0x62, 0x11, 0xbe,
  0xdb, 0xa5, 0x0b, 0x3f, 0x32, 0x65, 0xd8, 0x3a, 0x02, 0x9d, 0x87, 0x3f,
  0x21, 0x15, 0x13, 0x3f, 0x59, 0x63, 0x6b, 0xbf, 0x94, 0xd8, 0x01, 0x3f,
  0x22, 0x34, 0xd9, 0x3e, 0x00, 0x33, 0x82, 0x3f, 0x29, 0x4c, 0x06, 0x3e,
  0x1e, 0x69, 0x2c, 0xbf, 0xea, 0xe6, 0x72, 0x3e, 0x11, 0xba, 0x99, 0x3e,
  0x43, 0x41, 0x9a, 0xbe, 0x82, 0x81, 0x88, 0xbe, 0xc5, 0xa6, 0x19, 0xbf,
  0xb3, 0x8f, 0x42, 0x3e, 0x47, 0x55, 0xc7, 0x3f, 0xc4, 0xe5, 0xfc, 0xbc,
  0xa4, 0x9f, 0x8f, 0x3d, 0x8c, 0x5c, 0xe6, 0x3c, 0x28, 0x22, 0x21, 0xbd,
  0xd3, 0x15, 0x1e, 0x3e, 0x76, 0x6b, 0x8b, 0x3d, 0xb8, 0xa1, 0x84, 0xbe,
  0x55, 0x3a, 0x3e, 0xbe, 0xca, 0x03, 0xa7, 0x3e, 0x78, 0xea, 0x30, 0x3e,
  0xbb, 0xf5, 0xa5, 0x3e, 0x47, 0xcc, 0xb3, 0xbb, 0xbf, 0x3a, 0x88, 0x3e,
  0x54, 0xf4, 0xd3, 0x3f, 0x57, 0xc5, 0x9c, 0x3d, 0x87, 0x1a, 0x3c, 0xbe,
  0x03, 0x8a, 0x7c, 0x3e, 0xa9, 0x2d, 0xa2, 0xbe, 0xa9, 0x66, 0xae, 0x3f,
  0x90, 0x55, 0xb8, 0x3c, 0xfa, 0x25, 0xe0, 0xbd, 0x62, 0x74, 0x71, 0x3e,
  0x68, 0x69, 0x50, 0xbe, 0xfd, 0x9e, 0x86, 0xbe, 0x28, 0xfe, 0x08, 0x3d,
  0x82, 0xb7, 0x5e, 0x3e, 0x7a, 0x10, 0x49, 0x3e, 0x34, 0x00, 0xf7, 0xbd,
  0xfc, 0xab, 0x6e, 0xbe, 0x50, 0x6c, 0x9c, 0xbd, 0xd7, 0xef, 0x52, 0xbe,
  0xcc, 0x0c, 0x45, 0xbe, 0xdc, 0xcb, 0xd1, 0xbd, 0xc6, 0xf2, 0x92, 0xbe,
  0xdc, 0xef, 0xcd, 0x3d, 0x98, 0xf2, 0x27, 0x3d, 0xe0, 0x80, 0x91, 0xbe,
  0x4a, 0x2e, 0x38, 0x3e, 0xa9, 0xbe, 0x90, 0x3e, 0xe8, 0x42, 0xb8, 0xbd,
  0xbc, 0xa4, 0x84, 0xbe, 0x95, 0x58, 0x96, 0x3e, 0x0e, 0x8f, 0x0a, 0x3e,
  0xc4, 0x61, 0xea, 0xbd, 0xf6, 0xe0, 0x98, 0xbe, 0x40, 0x46, 0x66, 0x3c,
  0x32, 0x0c, 0x17, 0x3e, 0x36, 0xae, 0x35, 0x3e, 0x50, 0xee, 0xbc, 0xbc,
  0x78, 0xf3, 0x02, 0x3d, 0x00, 0xc9, 0xd1, 0xbc, 0x32, 0x4c, 0x8a, 0xbe,
  0x58, 0x3a, 0x94, 0xbd, 0x30, 0x4e, 0x87, 0xbe, 0x2c, 0xb1, 0x8f, 0x3d,
  0x00, 0x63, 0x3a, 0x3d, 0x4b, 0x6e, 0x8e, 0x3e, 0x91, 0xc5, 0x9b, 0x3e,
  0xb7, 0x00, 0x85, 0xbe, 0xdf, 0xb0, 0x6a, 0xbe, 0x4a, 0x16, 0x57, 0xbe,
  0x8d, 0x18, 0x62, 0x3e, 0x18, 0x63, 0x8f, 0x3e, 0x07, 0xfd, 0x46, 0x3e,
  0xbf, 0x1f, 0xd2, 0xbe, 0x14, 0x87, 0xba, 0x3e, 0x3d, 0x19, 0xaa, 0xbe,
  0x58, 0xd3, 0xe2, 0xbd, 0xe2, 0x2f, 0xc7, 0x3e, 0x79, 0x7e, 0x5d, 0xbe,
  0x79, 0xed, 0x57, 0x3d, 0xb8, 0xa3, 0x80, 0x3e, 0xb0, 0xde, 0x81, 0x3e,
  0x84, 0x60, 0xb2, 0xbe, 0x1c, 0xc2, 0xdc, 0xbe, 0x81, 0x0f, 0x62, 0xbf,
  0xbc, 0x86, 0xfc, 0xbd, 0xdd, 0xd5, 0x54, 0xbf, 0x45, 0xb0, 0x45, 0xbf,
  0xb7, 0x85, 0x9c, 0xbe, 0x07, 0x6c, 0x8f, 0xbe, 0xde, 0x7c, 0x3e, 0xbe,
  0x67, 0x4a, 0x4e, 0xbe, 0xbb, 0x15, 0x17, 0x3d, 0x3e, 0x41, 0x90, 0x3e,
  0xa3, 0x7d, 0xd1, 0x3e, 0x71, 0x08, 0xe4, 0xbd, 0x86, 0xcd, 0x7f, 0xbe,
  0xfa, 0x33, 0x43, 0xbe, 0xca, 0xd7, 0x7e, 0x3d, 0xdf, 0x0e, 0xaf, 0x3e,
  0xbd, 0xcb, 0x62, 0x3e, 0x2b, 0xd8, 0x1f, 0x3e, 0x91, 0x82, 0x50, 0x3e,
  0x12, 0x12, 0x68, 0x3e, 0x3f, 0x5c, 0x96, 0x3e, 0x07, 0xf5, 0x2d, 0xbd,
  0x0b, 0xdb, 0xbd, 0xbe, 0xb8, 0x76, 0xe0, 0x3d, 0x43, 0x90, 0x3b, 0x3d,
  0x30, 0x91, 0x90, 0x3d, 0x16, 0xfd, 0xb3, 0xbd, 0x9f, 0xcf, 0x51, 0xbe,
  0xda, 0xfc, 0xff, 0xff, 0x04, 0x00, 0x00, 0x00, 0xa4, 0x01, 0x00, 0x00,
  0xd8, 0x87, 0x82, 0xbd, 0xf3, 0xa5, 0xab, 0xbe, 0xc5, 0x58, 0x05, 0xbf,
  0xee, 0x04, 0x03, 0xbe, 0xdb, 0x34, 0x47, 0x3e, 0x3a, 0x21, 0xa7, 0xbe,
  0xa1, 0xb4, 0xd7, 0x3e, 0x6a, 0x73, 0x1e, 0x3d, 0xb5, 0x67, 0x2c, 0xbe,
  0x39, 0xbd, 0xc0, 0xbe, 0x70, 0x5e, 0xe0, 0x3d, 0x76, 0x0d, 0xcc, 0xbe,
  0x9a, 0xcc, 0xfd, 0xbe, 0xb0, 0xd8, 0xdb, 0xbe, 0x60, 0xf4, 0xf7, 0x3c,
  0x58, 0x5a, 0x01, 0x3f, 0xb6, 0x38, 0xe4, 0xbe, 0x99, 0xbb, 0xbf, 0x3f,
  0xd1, 0x70, 0x84, 0xbe, 0x39, 0xcb, 0x91, 0xbe, 0x6a, 0x06, 0xe8, 0x3e,
  0x64, 0x5b, 0x71, 0x3f, 0xc7, 0xe3, 0x28, 0x3e, 0xac, 0x4c, 0x9d, 0x3f,
  0xa0, 0x13, 0xc2, 0x3c, 0xf6, 0x81, 0xe0, 0x3e, 0xcb, 0x0a, 0xdf, 0xbd,
  0x4b, 0xec, 0x4d, 0xbe, 0x5f, 0x73, 0x89, 0xbe, 0xa9, 0x30, 0x6c, 0x3f,
  0x5d, 0x34, 0xfd, 0xbd, 0xd7, 0xea, 0xfa, 0xbd, 0x96, 0x41, 0x93, 0x3e,
  0xd8, 0x02, 0x66, 0x3e, 0x00, 0x2f, 0xa8, 0x3e, 0x22, 0x5c, 0xf7, 0x3e,
  0x31, 0x89, 0x12, 0xbe, 0xe9, 0x62, 0xef, 0xbe, 0x43, 0x7e, 0x2a, 0x3e,
  0x34, 0x89, 0xa2, 0xbe, 0xee, 0x1a, 0x10, 0xbf, 0xd7, 0x06, 0x14, 0xbe,
  0xfc, 0x54, 0xad, 0xbe, 0x02, 0x0b, 0xa6, 0x3e, 0xcb, 0xf1, 0x36, 0x3e,
  0x9f, 0x30, 0x76, 0x3f, 0xe4, 0xa3, 0x1b, 0xbf, 0x35, 0xd2, 0x60, 0x3e,
  0x52, 0x4d, 0xf9, 0x3e, 0xe0, 0x95, 0x1f, 0xbe, 0xa4, 0x06, 0xbf, 0x3e,
  0xd7, 0xd9, 0x6f, 0xbf, 0x56, 0xda, 0x81, 0xbd, 0x78, 0x10, 0xda, 0x3f,
  0x6a, 0x9b, 0xf5, 0x3e, 0xe0, 0x34, 0x37, 0x3f, 0x13, 0xeb, 0xdc, 0x3e,
  0xe8, 0x4f, 0xae, 0x3f, 0xee, 0x09, 0xcf, 0xbe, 0x2c, 0x85, 0x23, 0x3f,
  0xfc, 0x76, 0xc3, 0x3f, 0x84, 0x6d, 0x85, 0x3f, 0x13, 0x16, 0x37, 0x3f,
  0x82, 0x83, 0x8b, 0x3e, 0xf4, 0xcf, 0xa8, 0xbe, 0xe0, 0x39, 0xc7, 0x3e,
  0x14, 0xc4, 0xbd, 0x3f, 0xa8, 0x7c, 0xc8, 0x3e, 0xff, 0x0b, 0x9f, 0xbf,
  0xe8, 0x94, 0xe2, 0x3e, 0x95, 0xad, 0x9d, 0x3e, 0x73, 0x06, 0x9d, 0xbf,
  0x57, 0x32, 0x9a, 0x3f, 0x14, 0xce, 0x4b, 0xbe, 0xdd, 0x36, 0x6d, 0xbf,
  0x71, 0xd9, 0x3e, 0xbe, 0x07, 0x5a, 0x85, 0x3e, 0xde, 0xa6, 0x2d, 0xbe,
  0x00, 0xc4, 0x20, 0xbb, 0x10, 0x5e, 0xb7, 0x3f, 0xc0, 0x3d, 0x46, 0x3e,
  0x3b, 0xcb, 0xa7, 0xbf, 0xe5, 0x3f, 0xae, 0x3f, 0x21, 0x6b, 0xec, 0x3e,
  0x60, 0xca, 0x61, 0x3e, 0x50, 0x1b, 0xa7, 0xbf, 0x30, 0xfa, 0xd7, 0xbc,
  0x48, 0x7f, 0xca, 0x3e, 0xf0, 0x6c, 0x3a, 0x3d, 0xf4, 0x36, 0x76, 0x3f,
  0x6c, 0xb3, 0xc7, 0x3f, 0x33, 0x95, 0x49, 0x3f, 0x19, 0x45, 0xcd, 0xbe,
  0x34, 0xf2, 0xfc, 0xbd, 0xb8, 0xee, 0xac, 0xbd, 0x10, 0xc2, 0x55, 0x3d,
  0x1c, 0x46, 0x21, 0xbf, 0x91, 0x65, 0x70, 0xbf, 0xba, 0x84, 0x07, 0x3f,
  0x5f, 0xdd, 0xdd, 0xbe, 0x92, 0xf0, 0x90, 0x3f, 0xc2, 0xa9, 0xda, 0x3f,
  0x52, 0xcc, 0xd8, 0x3f, 0xf2, 0x5e, 0xeb, 0xbe, 0xa0, 0x4e, 0xd3, 0xbf,
  0x8a, 0xfe, 0xff, 0xff, 0x04, 0x00, 0x00, 0x00, 0x8c, 0x00, 0x00, 0x00,
  0x04, 0x7d, 0xb2, 0xbe, 0x16, 0x7e, 0x9e, 0xbf, 0xcd, 0xa7, 0x68, 0xbe,
  0x16, 0x54, 0x26, 0xbe, 0x35, 0xe7, 0x12, 0x3f, 0x30, 0x22, 0x22, 0x3f,
  0xd8, 0x52, 0x13, 0x3d, 0xe2, 0x37, 0x4c, 0x3e, 0x50, 0xa2, 0x67, 0x3f,
  0x1f, 0x98, 0xc2, 0xbe, 0x76, 0x12, 0xe5, 0xbf, 0xe4, 0x11, 0xc3, 0x3f,
  0x0e, 0xe5, 0xc4, 0xbf, 0x8a, 0xc5, 0x6e, 0xbf, 0x59, 0xd0, 0xd9, 0xbd,
  0x64, 0x16, 0x2d, 0xbf, 0x33, 0x83, 0x95, 0x3e, 0xd8, 0x6d, 0x01, 0xbf,
  0xa1, 0x52, 0xaa, 0xbf, 0xed, 0x53, 0xba, 0xbf, 0xa2, 0x4e, 0xad, 0x3f,
  0xd0, 0xb0, 0x82, 0x3d, 0xb1, 0xfc, 0xa4, 0x3f, 0xd0, 0xbe, 0x3b, 0xbe,
  0x85, 0xa9, 0xbe, 0x3f, 0xbc, 0x76, 0xe5, 0xbe, 0x8b, 0x08, 0x9f, 0xbf,
  0x5c, 0xd9, 0x4c, 0xbe, 0x42, 0xd8, 0x65, 0xbe, 0x9a, 0x52, 0x1e, 0xbc,
  0x39, 0x31, 0xc2, 0xbe, 0x3c, 0xdc, 0x96, 0xbe, 0xba, 0x53, 0x83, 0xbe,
  0x24, 0x68, 0xb5, 0x3f, 0x26, 0x1a, 0x16, 0xc0, 0x22, 0xff, 0xff, 0xff,
  0x04, 0x00, 0x00, 0x00, 0x14, 0x00, 0x00, 0x00, 0xdd, 0x82, 0x18, 0xbf,
  0xd9, 0x3f, 0xf0, 0x3d, 0x16, 0x9a, 0x40, 0x3f, 0xc4, 0x68, 0x55, 0xbf,
  0x2b, 0x2f, 0x19, 0x3f, 0x42, 0xff, 0xff, 0xff, 0x04, 0x00, 0x00, 0x00,
  0x1c, 0x00, 0x00, 0x00, 0x6b, 0x9e, 0x00, 0xbd, 0xcd, 0x95, 0x3e, 0xbe,
  0x2f, 0x4a, 0x2b, 0xbe, 0x80, 0xdd, 0xbd, 0xbe, 0xee, 0x97, 0x48, 0xbd,
  0x76, 0xef, 0x20, 0x3e, 0x0f, 0xbd, 0x84, 0x3c, 0x0c, 0xfa, 0xff, 0xff,
  0x10, 0xfa, 0xff, 0xff, 0x0f, 0x00, 0x00, 0x00, 0x4d, 0x4c, 0x49, 0x52,
  0x20, 0x43, 0x6f, 0x6e, 0x76, 0x65, 0x72, 0x74, 0x65, 0x64, 0x2e, 0x00,
  0x01, 0x00, 0x00, 0x00, 0x14, 0x00, 0x00, 0x00, 0x00, 0x00, 0x0e, 0x00,
  0x18, 0x00, 0x14, 0x00, 0x10, 0x00, 0x0c, 0x00, 0x08, 0x00, 0x04, 0x00,
  0x0e, 0x00, 0x00, 0x00, 0x14, 0x00, 0x00, 0x00, 0x1c, 0x00, 0x00, 0x00,
  0x34, 0x01, 0x00, 0x00, 0x38, 0x01, 0x00, 0x00, 0x3c, 0x01, 0x00, 0x00,
  0x04, 0x00, 0x00, 0x00, 0x6d, 0x61, 0x69, 0x6e, 0x00, 0x00, 0x00, 0x00,
  0x04, 0x00, 0x00, 0x00, 0xdc, 0x00, 0x00, 0x00, 0x94, 0x00, 0x00, 0x00,
  0x50, 0x00, 0x00, 0x00, 0x14, 0x00, 0x00, 0x00, 0x00, 0x00, 0x0e, 0x00,
  0x1a, 0x00, 0x14, 0x00, 0x10, 0x00, 0x0c, 0x00, 0x0b, 0x00, 0x04, 0x00,
  0x0e, 0x00, 0x00, 0x00, 0x1c, 0x00, 0x00, 0x00, 0x00, 0x00, 0x00, 0x09,
  0x1c, 0x00, 0x00, 0x00, 0x20, 0x00, 0x00, 0x00, 0x01, 0x00, 0x00, 0x00,
  0x00, 0x00, 0x06, 0x00, 0x08, 0x00, 0x04, 0x00, 0x06, 0x00, 0x00, 0x00,
  0x00, 0x00, 0x80, 0x3f, 0x01, 0x00, 0x00, 0x00, 0x0a, 0x00, 0x00, 0x00,
  0x01, 0x00, 0x00, 0x00, 0x09, 0x00, 0x00, 0x00, 0xce, 0xff, 0xff, 0xff,
  0x10, 0x00, 0x00, 0x00, 0x00, 0x00, 0x00, 0x08, 0x0c, 0x00, 0x00, 0x00,
  0x10, 0x00, 0x00, 0x00, 0xd4, 0xfa, 0xff, 0xff, 0x01, 0x00, 0x00, 0x00,
  0x09, 0x00, 0x00, 0x00, 0x03, 0x00, 0x00, 0x00, 0x08, 0x00, 0x00, 0x00,
  0x03, 0x00, 0x00, 0x00, 0x02, 0x00, 0x00, 0x00, 0x00, 0x00, 0x0e, 0x00,
  0x14, 0x00, 0x00, 0x00, 0x10, 0x00, 0x0c, 0x00, 0x0b, 0x00, 0x04, 0x00,
  0x0e, 0x00, 0x00, 0x00, 0x10, 0x00, 0x00, 0x00, 0x00, 0x00, 0x00, 0x08,
  0x10, 0x00, 0x00, 0x00, 0x14, 0x00, 0x00, 0x00, 0xba, 0xff, 0xff, 0xff,
  0x00, 0x00, 0x00, 0x01, 0x01, 0x00, 0x00, 0x00, 0x08, 0x00, 0x00, 0x00,
  0x03, 0x00, 0x00, 0x00, 0x07, 0x00, 0x00, 0x00, 0x04, 0x00, 0x00, 0x00,
  0x01, 0x00, 0x00, 0x00, 0x00, 0x00, 0x0e, 0x00, 0x16, 0x00, 0x00, 0x00,
  0x10, 0x00, 0x0c, 0x00, 0x0b, 0x00, 0x04, 0x00, 0x0e, 0x00, 0x00, 0x00,
  0x18, 0x00, 0x00, 0x00, 0x00, 0x00, 0x00, 0x08, 0x18, 0x00, 0x00, 0x00,
  0x1c, 0x00, 0x00, 0x00, 0x00, 0x00, 0x06, 0x00, 0x08, 0x00, 0x07, 0x00,
  0x06, 0x00, 0x00, 0x00, 0x00, 0x00, 0x00, 0x01, 0x01, 0x00, 0x00, 0x00,
  0x07, 0x00, 0x00, 0x00, 0x03, 0x00, 0x00, 0x00, 0x00, 0x00, 0x00, 0x00,
  0x05, 0x00, 0x00, 0x00, 0x06, 0x00, 0x00, 0x00, 0x01, 0x00, 0x00, 0x00,
  0x0a, 0x00, 0x00, 0x00, 0x01, 0x00, 0x00, 0x00, 0x00, 0x00, 0x00, 0x00,
  0x0b, 0x00, 0x00, 0x00, 0x44, 0x04, 0x00, 0x00, 0xc4, 0x03, 0x00, 0x00,
  0x60, 0x03, 0x00, 0x00, 0x10, 0x03, 0x00, 0x00, 0xc0, 0x02, 0x00, 0x00,
  0x74, 0x02, 0x00, 0x00, 0x10, 0x02, 0x00, 0x00, 0x7c, 0x01, 0x00, 0x00,
  0xe0, 0x00, 0x00, 0x00, 0x60, 0x00, 0x00, 0x00, 0x04, 0x00, 0x00, 0x00,
  0xfe, 0xfb, 0xff, 0xff, 0x00, 0x00, 0x00, 0x01, 0x14, 0x00, 0x00, 0x00,
  0x1c, 0x00, 0x00, 0x00, 0x1c, 0x00, 0x00, 0x00, 0x0b, 0x00, 0x00, 0x00,
  0x34, 0x00, 0x00, 0x00, 0x02, 0x00, 0x00, 0x00, 0xff, 0xff, 0xff, 0xff,
  0x05, 0x00, 0x00, 0x00, 0xe8, 0xfb, 0xff, 0xff, 0x1b, 0x00, 0x00, 0x00,
  0x53, 0x74, 0x61, 0x74, 0x65, 0x66, 0x75, 0x6c, 0x50, 0x61, 0x72, 0x74,
  0x69, 0x74, 0x69, 0x6f, 0x6e, 0x65, 0x64, 0x43, 0x61, 0x6c, 0x6c, 0x5f,
  0x31, 0x3a, 0x30, 0x00, 0x02, 0x00, 0x00, 0x00, 0x01, 0x00, 0x00, 0x00,
  0x05, 0x00, 0x00, 0x00, 0x56, 0xfc, 0xff, 0xff, 0x00, 0x00, 0x00, 0x01,
  0x14, 0x00, 0x00, 0x00, 0x1c, 0x00, 0x00, 0x00, 0x1c, 0x00, 0x00, 0x00,
  0x0a, 0x00, 0x00, 0x00, 0x58, 0x00, 0x00, 0x00, 0x02, 0x00, 0x00, 0x00,
  0xff, 0xff, 0xff, 0xff, 0x05, 0x00, 0x00, 0x00, 0x40, 0xfc, 0xff, 0xff,
  0x3c, 0x00, 0x00, 0x00, 0x73, 0x65, 0x71, 0x75, 0x65, 0x6e, 0x74, 0x69,
  0x61, 0x6c, 0x5f, 0x31, 0x2f, 0x64, 0x65, 0x6e, 0x73, 0x65, 0x5f, 0x32,
  0x5f, 0x31, 0x2f, 0x4d, 0x61, 0x74, 0x4d, 0x75, 0x6c, 0x3b, 0x73, 0x65,
  0x71, 0x75, 0x65, 0x6e, 0x74, 0x69, 0x61, 0x6c, 0x5f, 0x31, 0x2f, 0x64,
  0x65, 0x6e, 0x73, 0x65, 0x5f, 0x32, 0x5f, 0x31, 0x2f, 0x42, 0x69, 0x61,
  0x73, 0x41, 0x64, 0x64, 0x00, 0x00, 0x00, 0x00, 0x02, 0x00, 0x00, 0x00,
  0x01, 0x00, 0x00, 0x00, 0x05, 0x00, 0x00, 0x00, 0xd2, 0xfc, 0xff, 0xff,
  0x00, 0x00, 0x00, 0x01, 0x14, 0x00, 0x00, 0x00, 0x1c, 0x00, 0x00, 0x00,
  0x1c, 0x00, 0x00, 0x00, 0x09, 0x00, 0x00, 0x00, 0x74, 0x00, 0x00, 0x00,
  0x02, 0x00, 0x00, 0x00, 0xff, 0xff, 0xff, 0xff, 0x07, 0x00, 0x00, 0x00,
  0xbc, 0xfc, 0xff, 0xff, 0x58, 0x00, 0x00, 0x00, 0x73, 0x65, 0x71, 0x75,
  0x65, 0x6e, 0x74, 0x69, 0x61, 0x6c, 0x5f, 0x31, 0x2f, 0x64, 0x65, 0x6e,
  0x73, 0x65, 0x5f, 0x31, 0x5f, 0x32, 0x2f, 0x4d, 0x61, 0x74, 0x4d, 0x75,
  0x6c, 0x3b, 0x73, 0x65, 0x71, 0x75, 0x65, 0x6e, 0x74, 0x69, 0x61, 0x6c,
  0x5f, 0x31, 0x2f, 0x64, 0x65, 0x6e, 0x73, 0x65, 0x5f, 0x31, 0x5f, 0x32,
  0x2f, 0x52, 0x65, 0x6c, 0x75, 0x3b, 0x73, 0x65, 0x71, 0x75, 0x65, 0x6e,
  0x74, 0x69, 0x61, 0x6c, 0x5f, 0x31, 0x2f, 0x64, 0x65, 0x6e, 0x73, 0x65,
  0x5f, 0x31, 0x5f, 0x32, 0x2f, 0x42, 0x69, 0x61, 0x73, 0x41, 0x64, 0x64,
  0x00, 0x00, 0x00, 0x00, 0x02, 0x00, 0x00, 0x00, 0x01, 0x00, 0x00, 0x00,
  0x07, 0x00, 0x00, 0x00, 0x6a, 0xfd, 0xff, 0xff, 0x00, 0x00, 0x00, 0x01,
  0x14, 0x00, 0x00, 0x00, 0x1c, 0x00, 0x00, 0x00, 0x1c, 0x00, 0x00, 0x00,
  0x08, 0x00, 0x00, 0x00, 0x6c, 0x00, 0x00, 0x00, 0x02, 0x00, 0x00, 0x00,
  0xff, 0xff, 0xff, 0xff, 0x0f, 0x00, 0x00, 0x00, 0x54, 0xfd, 0xff, 0xff,
  0x52, 0x00, 0x00, 0x00, 0x73, 0x65, 0x71, 0x75, 0x65, 0x6e, 0x74, 0x69,
  0x61, 0x6c, 0x5f, 0x31, 0x2f, 0x64, 0x65, 0x6e, 0x73, 0x65, 0x5f, 0x31,
  0x2f, 0x4d, 0x61, 0x74, 0x4d, 0x75, 0x6c, 0x3b, 0x73, 0x65, 0x71, 0x75,
  0x65, 0x6e, 0x74, 0x69, 0x61, 0x6c, 0x5f, 0x31, 0x2f, 0x64, 0x65, 0x6e,
  0x73, 0x65, 0x5f, 0x31, 0x2f, 0x52, 0x65, 0x6c, 0x75, 0x3b, 0x73, 0x65,
  0x71, 0x75, 0x65, 0x6e, 0x74, 0x69, 0x61, 0x6c, 0x5f, 0x31, 0x2f, 0x64,
  0x65, 0x6e, 0x73, 0x65, 0x5f, 0x31, 0x2f, 0x42, 0x69, 0x61, 0x73, 0x41,
  0x64, 0x64, 0x00, 0x00, 0x02, 0x00, 0x00, 0x00, 0x01, 0x00, 0x00, 0x00,
  0x0f, 0x00, 0x00, 0x00, 0x76, 0xfe, 0xff, 0xff, 0x00, 0x00, 0x00, 0x01,
  0x10, 0x00, 0x00, 0x00, 0x10, 0x00, 0x00, 0x00, 0x07, 0x00, 0x00, 0x00,
  0x44, 0x00, 0x00, 0x00, 0xd4, 0xfd, 0xff, 0xff, 0x36, 0x00, 0x00, 0x00,
  0x73, 0x65, 0x71, 0x75, 0x65, 0x6e, 0x74, 0x69, 0x61, 0x6c, 0x5f, 0x31,
  0x2f, 0x64, 0x65, 0x6e, 0x73, 0x65, 0x5f, 0x31, 0x2f, 0x52, 0x65, 0x6c,
  0x75, 0x3b, 0x73, 0x65, 0x71, 0x75, 0x65, 0x6e, 0x74, 0x69, 0x61, 0x6c,
  0x5f, 0x31, 0x2f, 0x64, 0x65, 0x6e, 0x73, 0x65, 0x5f, 0x31, 0x2f, 0x42,
  0x69, 0x61, 0x73, 0x41, 0x64, 0x64, 0x00, 0x00, 0x01, 0x00, 0x00, 0x00,
  0x0f, 0x00, 0x00, 0x00, 0xd6, 0xfe, 0xff, 0xff, 0x00, 0x00, 0x00, 0x01,
  0x10, 0x00, 0x00, 0x00, 0x10, 0x00, 0x00, 0x00, 0x06, 0x00, 0x00, 0x00,
  0x28, 0x00, 0x00, 0x00, 0x34, 0xfe, 0xff, 0xff, 0x1b, 0x00, 0x00, 0x00,
  0x73, 0x65, 0x71, 0x75, 0x65, 0x6e, 0x74, 0x69, 0x61, 0x6c, 0x5f, 0x31,
  0x2f, 0x64, 0x65, 0x6e, 0x73, 0x65, 0x5f, 0x31, 0x2f, 0x4d, 0x61, 0x74,
  0x4d, 0x75, 0x6c, 0x00, 0x02, 0x00, 0x00, 0x00, 0x0f, 0x00, 0x00, 0x00,
  0x2a, 0x00, 0x00, 0x00, 0x1e, 0xff, 0xff, 0xff, 0x00, 0x00, 0x00, 0x01,
  0x10, 0x00, 0x00, 0x00, 0x10, 0x00, 0x00, 0x00, 0x05, 0x00, 0x00, 0x00,
  0x2c, 0x00, 0x00, 0x00, 0x7c, 0xfe, 0xff, 0xff, 0x1d, 0x00, 0x00, 0x00,
  0x73, 0x65, 0x71, 0x75, 0x65, 0x6e, 0x74, 0x69, 0x61, 0x6c, 0x5f, 0x31,
  0x2f, 0x64, 0x65, 0x6e, 0x73, 0x65, 0x5f, 0x31, 0x5f, 0x32, 0x2f, 0x4d,
  0x61, 0x74, 0x4d, 0x75, 0x6c, 0x00, 0x00, 0x00, 0x02, 0x00, 0x00, 0x00,
  0x07, 0x00, 0x00, 0x00, 0x0f, 0x00, 0x00, 0x00, 0x6a, 0xff, 0xff, 0xff,
  0x00, 0x00, 0x00, 0x01, 0x10, 0x00, 0x00, 0x00, 0x10, 0x00, 0x00, 0x00,
  0x04, 0x00, 0x00, 0x00, 0x2c, 0x00, 0x00, 0x00, 0xc8, 0xfe, 0xff, 0xff,
  0x1d, 0x00, 0x00, 0x00, 0x73, 0x65, 0x71, 0x75, 0x65, 0x6e, 0x74, 0x69,
  0x61, 0x6c, 0x5f, 0x31, 0x2f, 0x64, 0x65, 0x6e, 0x73, 0x65, 0x5f, 0x32,
  0x5f, 0x31, 0x2f, 0x4d, 0x61, 0x74, 0x4d, 0x75, 0x6c, 0x00, 0x00, 0x00,
  0x02, 0x00, 0x00, 0x00, 0x05, 0x00, 0x00, 0x00, 0x07, 0x00, 0x00, 0x00,
  0xb6, 0xff, 0xff, 0xff, 0x00, 0x00, 0x00, 0x01, 0x10, 0x00, 0x00, 0x00,
  0x10, 0x00, 0x00, 0x00, 0x03, 0x00, 0x00, 0x00, 0x2c, 0x00, 0x00, 0x00,
  0x14, 0xff, 0xff, 0xff, 0x1e, 0x00, 0x00, 0x00, 0x73, 0x65, 0x71, 0x75,
  0x65, 0x6e, 0x74, 0x69, 0x61, 0x6c, 0x5f, 0x31, 0x2f, 0x64, 0x65, 0x6e,
  0x73, 0x65, 0x5f, 0x32, 0x5f, 0x31, 0x2f, 0x42, 0x69, 0x61, 0x73, 0x41,
  0x64, 0x64, 0x00, 0x00, 0x01, 0x00, 0x00, 0x00, 0x05, 0x00, 0x00, 0x00,
  0x00, 0x00, 0x16, 0x00, 0x18, 0x00, 0x14, 0x00, 0x00, 0x00, 0x10, 0x00,
  0x0c, 0x00, 0x08, 0x00, 0x00, 0x00, 0x00, 0x00, 0x00, 0x00, 0x07, 0x00,
  0x16, 0x00, 0x00, 0x00, 0x00, 0x00, 0x00, 0x01, 0x10, 0x00, 0x00, 0x00,
  0x10, 0x00, 0x00, 0x00, 0x02, 0x00, 0x00, 0x00, 0x48, 0x00, 0x00, 0x00,
  0x74, 0xff, 0xff, 0xff, 0x3a, 0x00, 0x00, 0x00, 0x73, 0x65, 0x71, 0x75,
  0x65, 0x6e, 0x74, 0x69, 0x61, 0x6c, 0x5f, 0x31, 0x2f, 0x64, 0x65, 0x6e,
  0x73, 0x65, 0x5f, 0x31, 0x5f, 0x32, 0x2f, 0x52, 0x65, 0x6c, 0x75, 0x3b,
  0x73, 0x65, 0x71, 0x75, 0x65, 0x6e, 0x74, 0x69, 0x61, 0x6c, 0x5f, 0x31,
  0x2f, 0x64, 0x65, 0x6e, 0x73, 0x65, 0x5f, 0x31, 0x5f, 0x32, 0x2f, 0x42,
  0x69, 0x61, 0x73, 0x41, 0x64, 0x64, 0x00, 0x00, 0x01, 0x00, 0x00, 0x00,
  0x07, 0x00, 0x00, 0x00, 0x00, 0x00, 0x16, 0x00, 0x1c, 0x00, 0x18, 0x00,
  0x00, 0x00, 0x14, 0x00, 0x10, 0x00, 0x0c, 0x00, 0x00, 0x00, 0x00, 0x00,
  0x08, 0x00, 0x07, 0x00, 0x16, 0x00, 0x00, 0x00, 0x00, 0x00, 0x00, 0x01,
  0x14, 0x00, 0x00, 0x00, 0x20, 0x00, 0x00, 0x00, 0x20, 0x00, 0x00, 0x00,
  0x01, 0x00, 0x00, 0x00, 0x3c, 0x00, 0x00, 0x00, 0x02, 0x00, 0x00, 0x00,
  0xff, 0xff, 0xff, 0xff, 0x2a, 0x00, 0x00, 0x00, 0x04, 0x00, 0x04, 0x00,
  0x04, 0x00, 0x00, 0x00, 0x1e, 0x00, 0x00, 0x00, 0x73, 0x65, 0x72, 0x76,
  0x69, 0x6e, 0x67, 0x5f, 0x64, 0x65, 0x66, 0x61, 0x75, 0x6c, 0x74, 0x5f,
  0x6b, 0x65, 0x72, 0x61, 0x73, 0x5f, 0x74, 0x65, 0x6e, 0x73, 0x6f, 0x72,
  0x3a, 0x30, 0x00, 0x00, 0x02, 0x00, 0x00, 0x00, 0x01, 0x00, 0x00, 0x00,
  0x2a, 0x00, 0x00, 0x00, 0x02, 0x00, 0x00, 0x00, 0x20, 0x00, 0x00, 0x00,
  0x04, 0x00, 0x00, 0x00, 0xf4, 0xff, 0xff, 0xff, 0x19, 0x00, 0x00, 0x00,
  0x00, 0x00, 0x00, 0x19, 0x0c, 0x00, 0x0c, 0x00, 0x0b, 0x00, 0x00, 0x00,
  0x00, 0x00, 0x04, 0x00, 0x0c, 0x00, 0x00, 0x00, 0x09, 0x00, 0x00, 0x00,
  0x00, 0x00, 0x00, 0x09
};
