const unsigned char model[] = {
  0x1c, 0x00, 0x00, 0x00, 0x54, 0x46, 0x4c, 0x33, 0x14, 0x00, 0x20, 0x00,
  0x1c, 0x00, 0x18, 0x00, 0x14, 0x00, 0x10, 0x00, 0x0c, 0x00, 0x00, 0x00,
  0x08, 0x00, 0x04, 0x00, 0x14, 0x00, 0x00, 0x00, 0x1c, 0x00, 0x00, 0x00,
  0x98, 0x00, 0x00, 0x00, 0xf0, 0x00, 0x00, 0x00, 0x64, 0x0e, 0x00, 0x00,
  0x74, 0x0e, 0x00, 0x00, 0xac, 0x14, 0x00, 0x00, 0x03, 0x00, 0x00, 0x00,
  0x01, 0x00, 0x00, 0x00, 0x10, 0x00, 0x00, 0x00, 0x00, 0x00, 0x0a, 0x00,
  0x10, 0x00, 0x0c, 0x00, 0x08, 0x00, 0x04, 0x00, 0x0a, 0x00, 0x00, 0x00,
  0x0c, 0x00, 0x00, 0x00, 0x1c, 0x00, 0x00, 0x00, 0x3c, 0x00, 0x00, 0x00,
  0x0f, 0x00, 0x00, 0x00, 0x73, 0x65, 0x72, 0x76, 0x69, 0x6e, 0x67, 0x5f,
  0x64, 0x65, 0x66, 0x61, 0x75, 0x6c, 0x74, 0x00, 0x01, 0x00, 0x00, 0x00,
  0x04, 0x00, 0x00, 0x00, 0x90, 0xff, 0xff, 0xff, 0x0a, 0x00, 0x00, 0x00,
  0x04, 0x00, 0x00, 0x00, 0x08, 0x00, 0x00, 0x00, 0x6f, 0x75, 0x74, 0x70,
  0x75, 0x74, 0x5f, 0x30, 0x00, 0x00, 0x00, 0x00, 0x01, 0x00, 0x00, 0x00,
  0x04, 0x00, 0x00, 0x00, 0x82, 0xf1, 0xff, 0xff, 0x04, 0x00, 0x00, 0x00,
  0x0e, 0x00, 0x00, 0x00, 0x6b, 0x65, 0x72, 0x61, 0x73, 0x5f, 0x74, 0x65,
  0x6e, 0x73, 0x6f, 0x72, 0x5f, 0x37, 0x00, 0x00, 0x02, 0x00, 0x00, 0x00,
  0x34, 0x00, 0x00, 0x00, 0x04, 0x00, 0x00, 0x00, 0xdc, 0xff, 0xff, 0xff,
  0x0d, 0x00, 0x00, 0x00, 0x04, 0x00, 0x00, 0x00, 0x13, 0x00, 0x00, 0x00,
  0x43, 0x4f, 0x4e, 0x56, 0x45, 0x52, 0x53, 0x49, 0x4f, 0x4e, 0x5f, 0x4d,
  0x45, 0x54, 0x41, 0x44, 0x41, 0x54, 0x41, 0x00, 0x08, 0x00, 0x0c, 0x00,
  0x08, 0x00, 0x04, 0x00, 0x08, 0x00, 0x00, 0x00, 0x0c, 0x00, 0x00, 0x00,
  0x04, 0x00, 0x00, 0x00, 0x13, 0x00, 0x00, 0x00, 0x6d, 0x69, 0x6e, 0x5f,
  0x72, 0x75, 0x6e, 0x74, 0x69, 0x6d, 0x65, 0x5f, 0x76, 0x65, 0x72, 0x73,
  0x69, 0x6f, 0x6e, 0x00, 0x0e, 0x00, 0x00, 0x00, 0x70, 0x0d, 0x00, 0x00,
  0x68, 0x0d, 0x00, 0x00, 0x3c, 0x0d, 0x00, 0x00, 0x1c, 0x0d, 0x00, 0x00,
  0x9c, 0x0c, 0x00, 0x00, 0xe8, 0x0a, 0x00, 0x00, 0x00, 0x01, 0x00, 0x00,
  0xb4, 0x00, 0x00, 0x00, 0xac, 0x00, 0x00, 0x00, 0xa4, 0x00, 0x00, 0x00,
  0x9c, 0x00, 0x00, 0x00, 0x94, 0x00, 0x00, 0x00, 0x74, 0x00, 0x00, 0x00,
  0x04, 0x00, 0x00, 0x00, 0x36, 0xf2, 0xff, 0xff, 0x04, 0x00, 0x00, 0x00,
  0x60, 0x00, 0x00, 0x00, 0x10, 0x00, 0x00, 0x00, 0x00, 0x00, 0x00, 0x00,
  0x08, 0x00, 0x0e, 0x00, 0x08, 0x00, 0x04, 0x00, 0x08, 0x00, 0x00, 0x00,
  0x10, 0x00, 0x00, 0x00, 0x24, 0x00, 0x00, 0x00, 0x00, 0x00, 0x06, 0x00,
  0x08, 0x00, 0x04, 0x00, 0x06, 0x00, 0x00, 0x00, 0x04, 0x00, 0x00, 0x00,
  0x00, 0x00, 0x00, 0x00, 0x0c, 0x00, 0x18, 0x00, 0x14, 0x00, 0x10, 0x00,
  0x0c, 0x00, 0x04, 0x00, 0x0c, 0x00, 0x00, 0x00, 0x30, 0x4f, 0xd4, 0x17,
  0xc1, 0xc6, 0x04, 0x53, 0x02, 0x00, 0x00, 0x00, 0x02, 0x00, 0x00, 0x00,
  0x04, 0x00, 0x00, 0x00, 0x06, 0x00, 0x00, 0x00, 0x32, 0x2e, 0x32, 0x31,
  0x2e, 0x30, 0x00, 0x00, 0xa2, 0xf2, 0xff, 0xff, 0x04, 0x00, 0x00, 0x00,
  0x10, 0x00, 0x00, 0x00, 0x31, 0x2e, 0x35, 0x2e, 0x30, 0x00, 0x00, 0x00,
  0x00, 0x00, 0x00, 0x00, 0x00, 0x00, 0x00, 0x00, 0x38, 0xed, 0xff, 0xff,
  0x3c, 0xed, 0xff, 0xff, 0x40, 0xed, 0xff, 0xff, 0x44, 0xed, 0xff, 0xff,
  0xce, 0xf2, 0xff, 0xff, 0x04, 0x00, 0x00, 0x00, 0x3c, 0x00, 0x00, 0x00,
  0x00, 0x00, 0x00, 0x00, 0x00, 0x00, 0x00, 0x00, 0x98, 0xeb, 0xe5, 0x3d,
  0x00, 0x00, 0x00, 0x00, 0x00, 0x00, 0x00, 0x00, 0x00, 0x00, 0x00, 0x00,
  0x00, 0x00, 0x00, 0x00, 0x00, 0x00, 0x00, 0x00, 0x00, 0x00, 0x00, 0x00,
  0x80, 0xf9, 0x5b, 0x3d, 0x80, 0x3a, 0xda, 0x3c, 0x00, 0x00, 0x00, 0x00,
  0xbd, 0xe9, 0xdd, 0xbd, 0x09, 0xa1, 0x92, 0x3e, 0x00, 0x00, 0x00, 0x00,
  0x16, 0xf3, 0xff, 0xff, 0x04, 0x00, 0x00, 0x00, 0xd8, 0x09, 0x00, 0x00,
  0xa0, 0x60, 0x5c, 0x3d, 0xd0, 0x8e, 0x81, 0x3c, 0x02, 0xed, 0x54, 0x3e,
  0x68, 0xee, 0x25, 0x3e, 0xc2, 0x5f, 0x4d, 0xbe, 0x20, 0x30, 0x9e, 0xbc,
  0x5e, 0x52, 0x7a, 0x3e, 0xbe, 0x97, 0x17, 0xbe, 0xca, 0x14, 0x6c, 0x3e,
  0xfa, 0x5f, 0x21, 0xbe, 0x88, 0xc3, 0x8d, 0x3d, 0x9e, 0x88, 0xd7, 0xbd,
  0x00, 0xa0, 0xd0, 0x3a, 0x30, 0xa5, 0x80, 0xbc, 0x00, 0xdc, 0x43, 0xba,
  0xce, 0x25, 0xf4, 0xbd, 0xae, 0x30, 0x15, 0xbe, 0x7f, 0x6e, 0x70, 0xbe,
  0xb2, 0x80, 0x06, 0x3e, 0xa0, 0xa4, 0x84, 0xbe, 0xc8, 0x38, 0x1b, 0x3e,
  0xef, 0xe1, 0x6c, 0xbe, 0xc0, 0x4e, 0xf4, 0x3b, 0x60, 0x6d, 0x72, 0xbd,
  0xe0, 0x85, 0xc4, 0xbc, 0x00, 0xf4, 0xdb, 0xba, 0xc0, 0x57, 0x6d, 0xbc,
  0x60, 0x27, 0x45, 0xbd, 0xb8, 0xaf, 0x85, 0xbe, 0x5b, 0xef, 0x82, 0xbe,
  0x78, 0xff, 0x55, 0x3d, 0x78, 0x94, 0x6c, 0x3d, 0x00, 0x66, 0x39, 0x3d,
  0x6a, 0x8d, 0x20, 0x3e, 0x13, 0xce, 0x9c, 0xbe, 0xda, 0xdd, 0xe3, 0xbd,
  0x88, 0x68, 0x01, 0x3e, 0x5e, 0x60, 0x67, 0x3e, 0xf1, 0x2f, 0x8c, 0x3e,
  0xa2, 0x60, 0x75, 0xbe, 0x1d, 0x6e, 0xa0, 0xbe, 0x30, 0x11, 0xbf, 0xbc,
  0x36, 0xd3, 0x4f, 0x3e, 0x55, 0x32, 0x88, 0x3e, 0x00, 0x97, 0x8c, 0xbe,
  0x7c, 0x86, 0x83, 0xbe, 0x31, 0x0e, 0x39, 0xbe, 0x4b, 0xbf, 0x20, 0xbe,
  0x54, 0x33, 0x1e, 0xbe, 0x4e, 0x9b, 0x36, 0x3e, 0xc6, 0x2b, 0x60, 0xbe,
  0xb0, 0x1a, 0x82, 0xbd, 0xa8, 0x77, 0x78, 0xbd, 0xf3, 0x99, 0x9a, 0x3e,
  0x00, 0xe0, 0xd2, 0xb8, 0x68, 0x9c, 0xa8, 0x3d, 0x64, 0xf8, 0xaa, 0xbd,
  0xb0, 0x02, 0x98, 0x3d, 0xb1, 0x4c, 0x16, 0xbe, 0x52, 0xa3, 0xff, 0xbd,
  0x9b, 0xee, 0x7a, 0xbe, 0x6e, 0xb7, 0x36, 0xbe, 0x7a, 0xe9, 0x0f, 0x3e,
  0xc0, 0xba, 0x12, 0x3c, 0xe0, 0x5d, 0x68, 0xbd, 0xf0, 0x8b, 0x98, 0xbe,
  0xde, 0x70, 0x4f, 0x3e, 0xe8, 0x05, 0xed, 0x3d, 0x38, 0x7e, 0x3c, 0xbd,
  0xb2, 0xea, 0x74, 0x3e, 0x48, 0x14, 0x06, 0xbd, 0x20, 0x5f, 0x83, 0xbc,
  0xed, 0x87, 0x85, 0xbe, 0x7f, 0x18, 0x9a, 0xbe, 0x7c, 0xbe, 0xef, 0xbd,
  0x1f, 0x9f, 0x91, 0x3e, 0x8a, 0xe0, 0xf0, 0xbd, 0x42, 0xe7, 0x3f, 0x3e,
  0x38, 0x49, 0xcc, 0x3d, 0x54, 0xa0, 0xa3, 0xbd, 0xd0, 0x73, 0x94, 0xbd,
  0x40, 0x5f, 0x72, 0xbd, 0x12, 0x37, 0x1c, 0x3e, 0x27, 0x7b, 0x30, 0xbe,
  0x42, 0x9d, 0xd3, 0x3e, 0xc5, 0xfa, 0x0e, 0xbf, 0x5f, 0x60, 0x0f, 0x3d,
  0x10, 0x51, 0xb7, 0xbe, 0x2b, 0xb3, 0x12, 0xbb, 0x9f, 0x83, 0xae, 0x3f,
  0x37, 0xdc, 0xe5, 0x3f, 0x45, 0x95, 0x37, 0xbd, 0xdf, 0x65, 0x2b, 0xbf,
  0x69, 0x20, 0x61, 0xbd, 0x4d, 0xb7, 0x95, 0x3e, 0xee, 0xc8, 0xb4, 0xbe,
  0xd4, 0xa8, 0x13, 0x40, 0x2a, 0xb3, 0xf3, 0x3f, 0xf6, 0xf9, 0xdb, 0x3d,
  0x4f, 0x1f, 0x19, 0xbe, 0xc9, 0xb0, 0xb9, 0x3a, 0x40, 0x85, 0x88, 0xbd,
  0x39, 0x73, 0x0a, 0xbe, 0x21, 0x99, 0xa9, 0x3f, 0xe6, 0x63, 0xe0, 0x3f,
  0xeb, 0x10, 0xb3, 0x3d, 0x1a, 0xe5, 0x5c, 0xbf, 0x48, 0x29, 0xa5, 0x3e,
  0xa0, 0xf5, 0x90, 0x3e, 0x82, 0x15, 0x97, 0x3e, 0x91, 0x76, 0xb0, 0x3e,
  0x55, 0x3f, 0x58, 0x3f, 0x85, 0x07, 0xd6, 0x3e, 0x94, 0xd8, 0xf7, 0x3e,
  0xe2, 0x18, 0xea, 0xbd, 0x79, 0xa4, 0x98, 0x3e, 0xb9, 0xac, 0x4f, 0x3e,
  0x10, 0xc8, 0x81, 0x3f, 0x6c, 0x14, 0x7f, 0x3f, 0xe5, 0xad, 0xaa, 0x3d,
  0xce, 0x9a, 0x00, 0xbf, 0x7c, 0x04, 0x9d, 0x3d, 0x90, 0x09, 0x16, 0x3d,
  0x1f, 0x4e, 0xc2, 0xbe, 0x63, 0xaf, 0xa8, 0x3f, 0x60, 0xc2, 0xde, 0x3f,
  0x00, 0xb7, 0xc4, 0x3d, 0xee, 0x47, 0xfe, 0xbd, 0xc0, 0xdb, 0x92, 0x3b,
  0xad, 0xb0, 0x9c, 0x3e, 0xc0, 0xb5, 0xad, 0xbc, 0x70, 0x53, 0xac, 0xbc,
  0xfe, 0xfa, 0x35, 0x3e, 0xd8, 0x16, 0x66, 0xbd, 0x10, 0x21, 0xf7, 0x3d,
  0x5c, 0xe9, 0x74, 0xbe, 0x9f, 0xf9, 0x33, 0xbe, 0xcc, 0x6a, 0x92, 0x3d,
  0x5b, 0xa3, 0x12, 0xbe, 0xc0, 0x8e, 0x64, 0x3d, 0x2a, 0x41, 0x66, 0x3e,
  0x0c, 0x89, 0x8f, 0xbe, 0x23, 0x9c, 0xa3, 0x3e, 0xcc, 0x1b, 0xc1, 0x3d,
  0xd0, 0xaa, 0xa7, 0x3d, 0x74, 0x46, 0xb7, 0x3d, 0xe0, 0xba, 0xf2, 0x3d,
  0xe6, 0x34, 0xb1, 0xbd, 0x9b, 0x5f, 0x2b, 0xbe, 0xb4, 0x39, 0xdf, 0x3d,
  0x93, 0xaf, 0x91, 0xbe, 0x35, 0xa8, 0x05, 0xbe, 0x45, 0x50, 0x83, 0x3e,
  0x3c, 0xcf, 0x80, 0xbd, 0x9a, 0x0a, 0x8e, 0xbe, 0xb0, 0xc5, 0xb7, 0x3c,
  0x43, 0x18, 0xa1, 0xbe, 0xc6, 0x3f, 0x9f, 0xbe, 0x24, 0x86, 0x45, 0xbe,
  0x1e, 0xe9, 0x87, 0xbe, 0x90, 0x77, 0xa3, 0x3d, 0xec, 0x5e, 0x13, 0xbe,
  0x90, 0xad, 0x75, 0xbd, 0x40, 0x9a, 0x76, 0xbd, 0x9c, 0x73, 0x78, 0xbe,
  0x78, 0x28, 0x00, 0x3d, 0x50, 0xc3, 0x32, 0x3d, 0xbe, 0x40, 0x76, 0x3e,
  0xb0, 0x04, 0x3f, 0x3d, 0x6e, 0x36, 0x5d, 0x3e, 0xc5, 0x0e, 0x8b, 0xbe,
  0xab, 0x8f, 0x86, 0xbe, 0x28, 0xef, 0x55, 0xbd, 0xf8, 0x9c, 0x2c, 0x3e,
  0xec, 0x8b, 0x8a, 0x3d, 0x12, 0xae, 0x58, 0xbe, 0x07, 0xf4, 0x34, 0xbe,
  0xa2, 0x1d, 0xbb, 0xbd, 0xdc, 0x6d, 0x8b, 0x3d, 0x9e, 0x3a, 0x59, 0xbe,
  0x36, 0x7f, 0x06, 0xbe, 0xc3, 0x78, 0x8e, 0x3e, 0xe5, 0x84, 0xa3, 0x3e,
  0x0c, 0xdf, 0x85, 0xbe, 0x71, 0x8a, 0x85, 0xbe, 0x15, 0xf9, 0x96, 0x3e,
  0x32, 0xb9, 0x5d, 0xbe, 0xcc, 0x98, 0xfe, 0xbd, 0x48, 0xed, 0xce, 0x3d,
  0xc3, 0xdb, 0x88, 0x3e, 0x09, 0x01, 0x98, 0x3e, 0x82, 0x49, 0x0b, 0x3e,
  0x0e, 0x2f, 0x31, 0xbe, 0x5c, 0x02, 0xe0, 0x3d, 0x6e, 0xf8, 0xfb, 0xbd,
  0xb3, 0x70, 0x90, 0x3e, 0xbe, 0x16, 0x4e, 0xbe, 0xb2, 0x76, 0x3c, 0x3e,
  0x29, 0x65, 0x52, 0xbe, 0x4c, 0x26, 0xa3, 0xbd, 0x13, 0x4d, 0x8d, 0xbe,
  0x80, 0xc9, 0xc2, 0x3b, 0x1d, 0x8d, 0x48, 0xbe, 0xff, 0x27, 0x34, 0xbe,
  0x33, 0xe5, 0x2c, 0xbe, 0xc3, 0xf2, 0x97, 0x3e, 0x10, 0xce, 0x08, 0x3d,
  0x32, 0x59, 0x43, 0x3e, 0xfc, 0x70, 0x19, 0xbe, 0x0d, 0x51, 0x9f, 0x3e,
  0x19, 0xa2, 0xa2, 0xbe, 0x92, 0xd4, 0x7d, 0x3e, 0xe0, 0xdd, 0xeb, 0x3c,
  0xcc, 0x70, 0x87, 0x3d, 0x5b, 0x39, 0xa3, 0x3e, 0xe0, 0x01, 0x6f, 0xbd,
  0x90, 0x20, 0x86, 0xbd, 0xfc, 0x77, 0x7e, 0xbe, 0x80, 0x56, 0x3a, 0x3c,
  0x40, 0x64, 0xe0, 0x3c, 0x9a, 0x2c, 0x84, 0xbe, 0x1c, 0x10, 0xe0, 0x3d,
  0xf0, 0x85, 0xcb, 0xbc, 0x74, 0x25, 0x01, 0xbe, 0x1b, 0x45, 0xa1, 0x3e,
  0x60, 0x01, 0x5d, 0xbc, 0x99, 0x25, 0x77, 0xbe, 0x28, 0x6f, 0xaa, 0x3d,
  0xd1, 0x5b, 0x48, 0xbe, 0xf2, 0xa8, 0x35, 0x3e, 0x56, 0x8e, 0xbe, 0xbd,
  0xb0, 0x89, 0x18, 0x3d, 0xf6, 0x8e, 0x5e, 0x3e, 0x08, 0x7f, 0x10, 0x3d,
  0x84, 0x7d, 0x9b, 0xbe, 0x96, 0xd8, 0x9f, 0xbe, 0x10, 0x3f, 0x14, 0xbd,
  0xa0, 0xac, 0xd3, 0xbc, 0x23, 0x9b, 0x47, 0xbe, 0x08, 0xea, 0x25, 0x3e,
  0x77, 0x7c, 0x73, 0xbe, 0x39, 0xe6, 0x80, 0x3e, 0x12, 0xbd, 0x9e, 0xbd,
  0x18, 0x08, 0x6f, 0xbd, 0x28, 0xbc, 0x36, 0xbe, 0xe8, 0xd9, 0x71, 0x3d,
  0x00, 0xec, 0xd3, 0x3d, 0xbc, 0x57, 0xe3, 0xbd, 0x20, 0x99, 0xb5, 0x3d,
  0xe4, 0x73, 0x94, 0x3d, 0x67, 0xb9, 0x13, 0xbe, 0xc8, 0x1d, 0xee, 0x3d,
  0xfd, 0xc8, 0x39, 0xbe, 0x90, 0x03, 0x1b, 0xbd, 0xce, 0xdc, 0x77, 0xbe,
  0x34, 0x10, 0xed, 0x3d, 0x18, 0xce, 0x22, 0x3d, 0xb5, 0x01, 0x81, 0x3e,
  0xc8, 0x6b, 0x1e, 0x3e, 0x20, 0xdd, 0x58, 0xbd, 0x62, 0xbd, 0x6e, 0x3e,
  0xb2, 0x44, 0x20, 0xbe, 0x49, 0xc7, 0x9b, 0x3e, 0x2b, 0x7f, 0x89, 0xbe,
  0x4e, 0x2c, 0x37, 0x3e, 0x6c, 0xd7, 0x85, 0xbe, 0xd0, 0xbc, 0x60, 0xbd,
  0x4f, 0x3e, 0x52, 0xbe, 0x70, 0xf7, 0x8e, 0x3c, 0xc0, 0x7b, 0xa5, 0x3b,
  0xda, 0x56, 0x85, 0xbe, 0x90, 0x2e, 0xf2, 0xbc, 0xcf, 0x30, 0x96, 0xbe,
  0x78, 0x6c, 0x62, 0xbe, 0xde, 0xf1, 0x45, 0x3e, 0xec, 0x43, 0x79, 0xbe,
  0xbb, 0xde, 0x8f, 0x3e, 0xf8, 0xed, 0x39, 0x3d, 0x31, 0x98, 0x84, 0x3e,
  0xa0, 0xd1, 0xe6, 0x3c, 0x20, 0xc8, 0x36, 0xbd, 0x68, 0x9a, 0x3a, 0x3d,
  0x89, 0xc8, 0x18, 0xbe, 0x89, 0x16, 0x7f, 0xbe, 0xab, 0x3c, 0x1d, 0xbe,
  0x60, 0xa1, 0xee, 0x3d, 0x96, 0xcd, 0x5d, 0x3e, 0x61, 0x3e, 0x87, 0x3e,
  0x30, 0xcb, 0x0f, 0x3d, 0x00, 0xe1, 0xf8, 0xba, 0x4e, 0x10, 0x01, 0x3e,
  0xbf, 0xb6, 0x30, 0xbe, 0x80, 0xaf, 0x85, 0x3b, 0xf0, 0xb7, 0xa8, 0xbc,
  0xfe, 0xa3, 0xc6, 0xbd, 0xc3, 0x69, 0x93, 0x3e, 0x78, 0x32, 0x8a, 0x3d,
  0xfd, 0x95, 0x39, 0xbe, 0xa8, 0x1d, 0xb4, 0x3d, 0x00, 0x3b, 0x06, 0x3e,
  0x32, 0xfc, 0x1d, 0x3e, 0x20, 0xe9, 0x56, 0xbc, 0xc8, 0xa4, 0xd0, 0xbd,
  0x1f, 0x90, 0x9d, 0x3e, 0xac, 0x04, 0xd8, 0xbd, 0xd6, 0xfa, 0x33, 0x3e,
  0x28, 0xcd, 0x5c, 0xbd, 0x8e, 0xf8, 0x7c, 0x3e, 0xc0, 0x0b, 0x9f, 0xbe,
  0x14, 0xbb, 0x07, 0x3e, 0x74, 0x21, 0x0e, 0xbe, 0x60, 0x90, 0x04, 0xbc,
  0xa3, 0x7b, 0x01, 0xbe, 0x39, 0x33, 0x21, 0xbe, 0x87, 0xda, 0x95, 0xbe,
  0x14, 0xc8, 0xd2, 0xbd, 0xd6, 0x89, 0x40, 0x3e, 0x6c, 0x6d, 0x8a, 0xbe,
  0xfc, 0x0d, 0xb5, 0xbd, 0x4e, 0x41, 0x23, 0xbe, 0xa2, 0x06, 0x5f, 0x3e,
  0x17, 0xef, 0x32, 0xbe, 0x36, 0x5c, 0x06, 0xbe, 0x00, 0x52, 0xa1, 0xba,
  0xa8, 0x77, 0x26, 0xbd, 0xb4, 0xcb, 0x95, 0xbe, 0x54, 0x3e, 0x76, 0xbe,
  0x22, 0x21, 0xe4, 0xbd, 0x10, 0xed, 0xfc, 0x3c, 0x88, 0x01, 0xbd, 0x3d,
  0x6a, 0xf9, 0x04, 0x3e, 0x53, 0x54, 0x3f, 0xbe, 0xec, 0x75, 0x99, 0xbe,
  0xba, 0xc0, 0x8d, 0xbe, 0x61, 0x23, 0xa1, 0x3e, 0x10, 0x2b, 0xd7, 0xbc,
  0x9a, 0xec, 0xc8, 0xbd, 0xe1, 0x8b, 0x88, 0x3e, 0x85, 0xe3, 0x70, 0xbe,
  0x6a, 0x34, 0x6b, 0x3e, 0xb2, 0xe1, 0x34, 0x3e, 0x61, 0x95, 0x93, 0x3e,
  0x80, 0xa9, 0x48, 0xbb, 0x9c, 0xf5, 0xcd, 0x3d, 0x0e, 0x1c, 0x4e, 0x3e,
  0x06, 0x8e, 0x3e, 0x3e, 0xfa, 0x1e, 0x6e, 0x3e, 0xfe, 0xa5, 0x5e, 0x3e,
  0x10, 0xa8, 0x59, 0x3d, 0xeb, 0xe0, 0x9a, 0x3e, 0xa2, 0x65, 0x7e, 0xbe,
  0xe0, 0x94, 0xed, 0xbc, 0x61, 0xb2, 0x07, 0xbe, 0x80, 0xca, 0xae, 0x3b,
  0x7b, 0x2c, 0x43, 0xbe, 0xfe, 0xa4, 0x4b, 0x3e, 0x7d, 0xaa, 0x9b, 0x3e,
  0x40, 0xdd, 0x22, 0xbd, 0x1c, 0xe3, 0xfd, 0xbd, 0x4e, 0xf4, 0x7e, 0xbe,
  0x28, 0x0c, 0x54, 0xbd, 0xd9, 0x5f, 0xa0, 0x3e, 0x20, 0x6a, 0x74, 0xbc,
  0xac, 0xc7, 0x7a, 0xbe, 0xa0, 0xbc, 0xa1, 0xbd, 0x40, 0x6b, 0x7e, 0xbd,
  0x94, 0x24, 0xb7, 0x3d, 0x96, 0x91, 0x6e, 0xbe, 0xd2, 0x3f, 0x6d, 0xbe,
  0x5e, 0xaa, 0x72, 0x3e, 0x59, 0x0d, 0x09, 0xbe, 0x20, 0x7a, 0x67, 0xbe,
  0x44, 0x93, 0x09, 0x3e, 0xc0, 0x2c, 0x4d, 0xbc, 0xec, 0xde, 0x63, 0xbe,
  0x1a, 0xa8, 0x28, 0x3e, 0xb0, 0x8e, 0x42, 0x3d, 0x30, 0x21, 0x31, 0x3e,
  0x8c, 0x3e, 0xb0, 0xbd, 0x66, 0xbb, 0x7b, 0x3e, 0x3e, 0x73, 0x1d, 0x3e,
  0xb8, 0x16, 0x93, 0xbf, 0xcb, 0xf4, 0x00, 0xbe, 0x7a, 0x61, 0xdc, 0x3f,
  0xc5, 0xcd, 0xd8, 0x3f, 0x72, 0x9a, 0x03, 0x3f, 0x8e, 0x2a, 0x2e, 0xbf,
  0xf5, 0xbe, 0x5f, 0x3e, 0x2b, 0x24, 0x43, 0x3f, 0x7e, 0x68, 0xcc, 0x3e,
  0x3d, 0xc7, 0x74, 0x3f, 0xac, 0x78, 0xc4, 0x3f, 0x8d, 0x61, 0x4c, 0x3e,
  0x9f, 0x69, 0x34, 0xbe, 0x7a, 0x8d, 0x9f, 0x3e, 0x1e, 0x06, 0xe6, 0x3d,
  0x09, 0xc2, 0xff, 0x3e, 0x1a, 0x03, 0xff, 0x3e, 0x58, 0x3f, 0xbf, 0x3e,
  0x91, 0xfc, 0x44, 0xbe, 0x73, 0x2c, 0xe3, 0xbd, 0x4b, 0xf4, 0xb6, 0x3e,
  0x7f, 0x54, 0x82, 0x3e, 0x00, 0x2d, 0x13, 0x3e, 0x48, 0xc9, 0xcb, 0x3e,
  0x2e, 0xc8, 0x30, 0x3e, 0xe7, 0x9c, 0x3f, 0x3e, 0xe5, 0x7a, 0x84, 0x3f,
  0x07, 0x22, 0x3e, 0x3e, 0xed, 0xed, 0x58, 0xbe, 0x4d, 0xf7, 0xe9, 0x3e,
  0xd5, 0xe8, 0x73, 0x3f, 0xe6, 0xbe, 0x9c, 0x3f, 0xd7, 0x49, 0x77, 0x3e,
  0xa3, 0x51, 0xbb, 0x3e, 0x97, 0xae, 0x67, 0x3d, 0x9e, 0xc3, 0x21, 0x3f,
  0x33, 0xfc, 0x07, 0x3f, 0x16, 0x14, 0x0b, 0x40, 0x45, 0x5a, 0x11, 0x40,
  0xd0, 0x7b, 0x81, 0xbc, 0xfd, 0x9c, 0x21, 0x3f, 0x0c, 0xe4, 0xda, 0xbd,
  0x18, 0xfd, 0xf5, 0x3e, 0x42, 0xf9, 0x77, 0x3f, 0xd7, 0xb5, 0xe2, 0xbf,
  0x5a, 0x69, 0xef, 0xbf, 0xa7, 0x39, 0x2b, 0x3e, 0x17, 0x32, 0xc3, 0x3f,
  0x85, 0xad, 0xb4, 0xbd, 0xb6, 0x57, 0xca, 0xbf, 0x2c, 0x49, 0x12, 0x3f,
  0xf5, 0x72, 0x07, 0xc0, 0x2e, 0x1f, 0xdb, 0xbf, 0x07, 0xe6, 0xab, 0x3d,
  0x89, 0x39, 0x8d, 0x3f, 0x72, 0x43, 0x92, 0x3e, 0xf7, 0xdd, 0x31, 0xbe,
  0x99, 0x21, 0xcb, 0x3e, 0xc0, 0xe1, 0x8a, 0xbe, 0x3f, 0x88, 0x07, 0xbd,
  0xcf, 0x62, 0xcc, 0xbd, 0x0e, 0x67, 0xe0, 0x3f, 0x6a, 0x4d, 0x1b, 0xbe,
  0xaa, 0x03, 0x64, 0xbe, 0x54, 0x30, 0x07, 0x3f, 0x9e, 0xf2, 0xf8, 0xbc,
  0xca, 0x98, 0x15, 0x3f, 0x92, 0x33, 0x55, 0x3e, 0x03, 0xa3, 0x50, 0x3e,
  0xca, 0x55, 0x34, 0xbe, 0x02, 0x67, 0x97, 0xbe, 0x60, 0x1e, 0x22, 0x3d,
  0x75, 0x18, 0x11, 0xbf, 0xa0, 0x3e, 0x95, 0xbf, 0x81, 0xdf, 0x43, 0xbe,
  0xdc, 0xdb, 0x1d, 0x3f, 0x98, 0xac, 0x0f, 0x3e, 0x22, 0x1a, 0xe9, 0xbe,
  0x19, 0xbc, 0xb9, 0xbe, 0x2f, 0xc9, 0x12, 0xc0, 0x94, 0xac, 0x1f, 0xc0,
  0x10, 0x25, 0xab, 0x3c, 0x90, 0x0e, 0x3f, 0xbd, 0x57, 0x57, 0x8a, 0xbe,
  0xb8, 0xa5, 0x32, 0x3d, 0x04, 0x49, 0x87, 0xbe, 0x66, 0xc5, 0x52, 0x3e,
  0x7a, 0x10, 0x5c, 0x3e, 0x00, 0xd0, 0x21, 0x3a, 0xfe, 0xe8, 0x3f, 0x3e,
  0xf0, 0xe5, 0xcf, 0x3c, 0xb2, 0x9b, 0x56, 0x3e, 0xb0, 0xc4, 0xe4, 0x3d,
  0x4e, 0x07, 0x78, 0x3e, 0x35, 0x01, 0x0d, 0xbe, 0xde, 0xa2, 0xc8, 0xbd,
  0xe0, 0x52, 0xd7, 0xbd, 0x04, 0xb8, 0xe0, 0x3d, 0x40, 0x07, 0x45, 0xbd,
  0xc0, 0xa9, 0xd5, 0xbb, 0x2e, 0xaf, 0x05, 0x3e, 0x00, 0x53, 0x6c, 0xbe,
  0x7e, 0xd5, 0x3f, 0xbe, 0x26, 0x33, 0x35, 0x3e, 0x22, 0x46, 0x75, 0xbe,
  0x56, 0x2b, 0x1a, 0x3e, 0xa0, 0x9d, 0x63, 0x3c, 0xb8, 0x30, 0xb7, 0x3d,
  0xe3, 0xaa, 0x8f, 0x3e, 0x75, 0xc7, 0x99, 0xbe, 0x58, 0xeb, 0x82, 0x3d,
  0x04, 0xf6, 0x9b, 0x3d, 0x82, 0x97, 0x43, 0x3e, 0xf4, 0x97, 0x72, 0xbe,
  0x2a, 0x3c, 0x1d, 0xbe, 0x4e, 0x9e, 0x44, 0xbe, 0xd0, 0x58, 0x27, 0xbe,
  0x79, 0x1e, 0x7d, 0xbe, 0x3e, 0xf9, 0x39, 0x3e, 0xef, 0x3b, 0x83, 0x3e,
  0x98, 0x5a, 0x17, 0xbd, 0x20, 0x08, 0x57, 0x3d, 0xb6, 0xc9, 0xdf, 0xbd,
  0x76, 0xf1, 0x71, 0xbe, 0x01, 0x7c, 0x4b, 0x3f, 0x3f, 0xd6, 0x40, 0xbe,
  0x94, 0x91, 0x49, 0xbf, 0x5b, 0x1c, 0x18, 0x3e, 0x89, 0xa7, 0x46, 0x3f,
  0x1d, 0x04, 0x2b, 0x3f, 0xb7, 0xcc, 0x4d, 0x3f, 0x0a, 0x24, 0x37, 0x3f,
  0x94, 0xdd, 0x1a, 0x3f, 0x50, 0xb9, 0x01, 0x3f, 0x61, 0x70, 0x07, 0x3f,
  0x99, 0x1f, 0x83, 0xbf, 0x2d, 0xea, 0x15, 0xbf, 0x85, 0x8a, 0x27, 0x3e,
  0xe2, 0x36, 0x10, 0x3e, 0x0d, 0xe2, 0xf1, 0x3e, 0x0c, 0x2d, 0xce, 0xbe,
  0xc5, 0xa7, 0xc1, 0x3e, 0x59, 0xdf, 0x18, 0xbf, 0x5d, 0xdf, 0x1b, 0xbf,
  0x23, 0x02, 0xbb, 0xbe, 0x98, 0x40, 0x6c, 0x3f, 0x71, 0x5e, 0xfe, 0xbd,
  0xf2, 0xc6, 0xf4, 0xbc, 0xf1, 0x05, 0x71, 0x3e, 0x50, 0xaf, 0x43, 0xbe,
  0x29, 0x90, 0x0c, 0xbf, 0x91, 0x83, 0x6b, 0xbe, 0xc6, 0x69, 0x8f, 0x3f,
  0x89, 0x02, 0x95, 0xbe, 0x24, 0x7f, 0xd7, 0xba, 0xac, 0xc0, 0x7b, 0x3e,
  0xf9, 0xb8, 0x8e, 0x3f, 0xf3, 0x86, 0x69, 0x3f, 0x57, 0x19, 0x4f, 0xbd,
  0x7a, 0x50, 0x98, 0x3f, 0x55, 0x84, 0x87, 0x3d, 0xaf, 0x13, 0xae, 0x3d,
  0x4c, 0x7b, 0x18, 0x3e, 0xb8, 0x29, 0xa3, 0x3f, 0xd6, 0xe6, 0xb4, 0x3f,
  0xab, 0xad, 0xa0, 0x3e, 0x38, 0x6e, 0x85, 0xbf, 0xef, 0x5b, 0xf5, 0x3e,
  0x4b, 0x65, 0x28, 0x3f, 0xa7, 0x02, 0xe7, 0xbd, 0x1a, 0xfc, 0x00, 0x3f,
  0x6d, 0x44, 0x1a, 0xbe, 0x8c, 0x94, 0x5f, 0xbe, 0x03, 0x76, 0x7e, 0xbf,
  0x9f, 0x6d, 0x0a, 0xbf, 0x14, 0x4b, 0x80, 0xbe, 0x9e, 0xe3, 0x20, 0xbf,
  0x76, 0xf1, 0xb4, 0x3f, 0xf6, 0x88, 0x9e, 0x3f, 0xc2, 0x6b, 0xe6, 0x3d,
  0x97, 0xf6, 0x98, 0x3c, 0x85, 0x60, 0x41, 0x3c, 0xd0, 0x1f, 0xb0, 0x3e,
  0x31, 0x32, 0xc3, 0x3d, 0x8e, 0xd9, 0x72, 0x3f, 0x00, 0xa9, 0xc3, 0x3f,
  0x8e, 0x51, 0xd1, 0x3e, 0xf6, 0x8d, 0x49, 0xbf, 0x6b, 0xf2, 0x05, 0x3f,
  0xa0, 0xc8, 0xf5, 0x3e, 0x59, 0x66, 0x85, 0x3e, 0x48, 0x99, 0x0c, 0x3f,
  0x0c, 0xf3, 0x6b, 0x3f, 0xa5, 0x1a, 0xf2, 0x3d, 0x6a, 0x1d, 0x00, 0xbf,
  0xc3, 0x7d, 0xaf, 0x3d, 0x6f, 0xc1, 0xdf, 0x3e, 0x35, 0xdb, 0xc7, 0x3e,
  0x96, 0xd7, 0x15, 0xbf, 0x5f, 0xb8, 0x09, 0xbf, 0x23, 0x63, 0x11, 0x3f,
  0xe9, 0x2e, 0xc2, 0xbf, 0x4d, 0x92, 0x91, 0x3e, 0x23, 0x48, 0xf1, 0xbd,
  0xe1, 0x0e, 0xfd, 0xbe, 0xfd, 0x74, 0xc3, 0xbe, 0x1d, 0x78, 0x47, 0xbf,
  0xda, 0x2c, 0x36, 0x3e, 0x9e, 0x68, 0xa5, 0xbe, 0x89, 0xed, 0x9a, 0xbe,
  0x48, 0x66, 0x3c, 0x3d, 0x91, 0x28, 0x86, 0xbe, 0x4c, 0x3a, 0x1d, 0xbe,
  0xca, 0x5f, 0x6b, 0x3e, 0x94, 0x09, 0xa4, 0xbe, 0x20, 0x2e, 0xa6, 0x3d,
  0x01, 0x01, 0x6a, 0xbe, 0x40, 0x2a, 0x5f, 0x3d, 0x50, 0xfa, 0x0b, 0xbd,
  0x9c, 0x60, 0x99, 0xbe, 0xea, 0x9c, 0xe6, 0xbd, 0xd3, 0xfc, 0x9a, 0xbe,
  0xa0, 0xdb, 0x97, 0x3d, 0x3e, 0x86, 0x5c, 0x3e, 0x7c, 0x71, 0xc7, 0x3d,
  0xf6, 0x39, 0x3a, 0x3e, 0xe8, 0x40, 0xda, 0xbd, 0x02, 0x6b, 0xb0, 0xbd,
  0xa0, 0x0e, 0x8c, 0xbe, 0xd4, 0xe2, 0x8d, 0xbd, 0x78, 0x81, 0xf0, 0x3d,
  0x9f, 0x1f, 0x98, 0x3e, 0xd8, 0x92, 0x11, 0xbe, 0xa5, 0x10, 0x82, 0x3e,
  0xfa, 0x5b, 0x59, 0xbe, 0x60, 0xc1, 0x1c, 0x3c, 0xc0, 0x61, 0xed, 0xbc,
  0x16, 0xae, 0xe8, 0xbd, 0xa5, 0x22, 0x9a, 0xbe, 0xfe, 0xb3, 0x66, 0xbe,
  0x2d, 0x75, 0x5c, 0xbe, 0x9f, 0x80, 0x9b, 0x3e, 0x6b, 0x3f, 0x99, 0x3e,
  0x9c, 0x08, 0x06, 0xbe, 0x9c, 0x98, 0xb2, 0xbd, 0xe4, 0xf7, 0x84, 0x3d,
  0x52, 0x0b, 0x30, 0x3e, 0x7e, 0xf3, 0x94, 0xbe, 0xaa, 0xfa, 0x7c, 0xbe,
  0xfa, 0xfc, 0xff, 0xff, 0x04, 0x00, 0x00, 0x00, 0xa4, 0x01, 0x00, 0x00,
  0x98, 0x8d, 0xee, 0x3e, 0x60, 0x24, 0x89, 0x3c, 0x41, 0xee, 0x19, 0x3f,
  0x8c, 0x6c, 0xb9, 0x3e, 0x86, 0x4f, 0xe7, 0x3e, 0x9c, 0x5c, 0x23, 0x3e,
  0x1c, 0x1c, 0xb8, 0xbd, 0x98, 0x30, 0x3a, 0xbe, 0xd0, 0xef, 0xf5, 0xbd,
  0x21, 0x31, 0x31, 0x3e, 0xa7, 0x65, 0x98, 0xbe, 0xb6, 0x8b, 0x84, 0xbe,
  0x99, 0x0d, 0x0e, 0xbf, 0xaf, 0xf2, 0xab, 0x3f, 0xfa, 0x52, 0xcf, 0x3e,
  0x12, 0xea, 0x97, 0x3e, 0x4c, 0x4a, 0x50, 0x3e, 0x2f, 0xbc, 0x10, 0x3f,
  0x48, 0x23, 0x31, 0xbe, 0xd8, 0xd3, 0xed, 0xbe, 0x54, 0xf0, 0x5a, 0xbe,
  0x0a, 0xb6, 0xe7, 0x3e, 0x00, 0xf8, 0x8c, 0xbd, 0xc0, 0x2b, 0xef, 0xbe,
  0x08, 0xec, 0x7b, 0x3a, 0x26, 0x40, 0xdc, 0xbd, 0x6b, 0xe0, 0xf0, 0xbe,
  0x5e, 0x30, 0xe3, 0xbe, 0xba, 0x55, 0x9f, 0x3f, 0xb0, 0xac, 0xba, 0xbe,
  0xa3, 0xf0, 0xbf, 0xbe, 0x7e, 0x07, 0xf5, 0x3e, 0x33, 0x07, 0x78, 0x3f,
  0xf0, 0xe4, 0x5b, 0x3d, 0x12, 0xef, 0xf8, 0x3e, 0x90, 0x6d, 0x35, 0x3d,
  0x6e, 0x2c, 0xae, 0xbe, 0x36, 0x00, 0xab, 0x3e, 0x67, 0xbf, 0x83, 0xbe,
  0xba, 0xd9, 0x13, 0x3f, 0x31, 0xd0, 0x09, 0xbf, 0x64, 0x3c, 0x8b, 0xbe,
  0xd7, 0x9d, 0xda, 0xbe, 0x7f, 0xa3, 0x75, 0x3f, 0x38, 0x9b, 0x50, 0x3e,
  0x38, 0x69, 0x33, 0x3e, 0x0a, 0x1a, 0xa7, 0x3e, 0x95, 0x34, 0x36, 0xbe,
  0xb0, 0xea, 0x21, 0x3d, 0x20, 0x76, 0xab, 0x3d, 0x00, 0x2f, 0xf6, 0xbd,
  0xa1, 0xc1, 0x9f, 0xbe, 0x2d, 0xaa, 0xe5, 0xbe, 0x70, 0x8f, 0xa8, 0xbe,
  0xe1, 0x5d, 0xd1, 0xbe, 0x69, 0x19, 0x91, 0x3f, 0x34, 0x1a, 0x9d, 0xbd,
  0xb6, 0x59, 0x4c, 0x3e, 0x5b, 0x18, 0xd0, 0x3e, 0xfc, 0xf1, 0xf0, 0xbd,
  0xcc, 0x3e, 0xdc, 0xbe, 0xfe, 0xfa, 0x84, 0x3e, 0x90, 0xd0, 0x37, 0x3d,
  0x30, 0xa4, 0xfc, 0x3d, 0x76, 0x80, 0x99, 0x3e, 0xd8, 0xf6, 0xaa, 0x3d,
  0x10, 0x76, 0x66, 0x3e, 0xac, 0x0d, 0x31, 0x3e, 0x00, 0xe9, 0x3d, 0xbd,
  0xd3, 0xaa, 0xdc, 0xbe, 0x9b, 0xa4, 0xad, 0x3d, 0x85, 0x31, 0xee, 0xbe,
  0x53, 0xc8, 0xb9, 0x3e, 0x84, 0x3b, 0x9e, 0x3d, 0x80, 0x0b, 0xdc, 0x3d,
  0xf0, 0xf5, 0x88, 0x3e, 0xe0, 0x3f, 0xfc, 0x3d, 0xfa, 0x32, 0x95, 0x3e,
  0xea, 0x28, 0xd6, 0xbe, 0x4c, 0xd7, 0xe3, 0x3e, 0x3a, 0x27, 0xbc, 0xbe,
  0xed, 0x0c, 0xff, 0xbe, 0x17, 0xe9, 0x01, 0x3f, 0x70, 0xef, 0xa9, 0x3d,
  0x94, 0x1c, 0x4a, 0x3f, 0xab, 0x1d, 0x96, 0xbf, 0x18, 0xd0, 0xed, 0xbd,
  0x47, 0x7e, 0x2f, 0x3f, 0x86, 0xa2, 0x3d, 0xbe, 0x5b, 0x5d, 0x01, 0x3f,
  0xfc, 0x84, 0xd7, 0x3e, 0x94, 0xfa, 0x07, 0xbe, 0xb0, 0x26, 0x27, 0xbf,
  0x52, 0x72, 0xe0, 0xbe, 0x7a, 0xf7, 0x5e, 0xbe, 0xe6, 0x74, 0x0e, 0xbe,
  0x1e, 0xd2, 0xc1, 0xbe, 0xaa, 0x50, 0xba, 0x3e, 0x32, 0x65, 0xc2, 0x3e,
  0xef, 0x9c, 0x57, 0x3f, 0x6a, 0xa0, 0x80, 0x3f, 0x08, 0x98, 0x05, 0x3e,
  0xac, 0x72, 0xad, 0x3f, 0xfc, 0x43, 0x6e, 0xbf, 0x10, 0x35, 0xd7, 0xbe,
  0xaa, 0xfe, 0xff, 0xff, 0x04, 0x00, 0x00, 0x00, 0x70, 0x00, 0x00, 0x00,
  0xea, 0xae, 0xda, 0xbe, 0x6e, 0xf5, 0x24, 0xbf, 0x5b, 0x36, 0x26, 0x3f,
  0xa5, 0x22, 0xd8, 0xbf, 0xf7, 0xc0, 0x24, 0x3f, 0x6f, 0x08, 0xb0, 0x3f,
  0x6b, 0x63, 0x2e, 0x3f, 0xf8, 0x9e, 0x6e, 0x3e, 0x0c, 0xc7, 0x73, 0x3e,
  0x9f, 0x41, 0x6a, 0x3f, 0xbf, 0x02, 0xaa, 0x3f, 0xb1, 0x2e, 0x9f, 0x3e,
  0x76, 0x53, 0x18, 0xbf, 0xd7, 0xa1, 0x10, 0xbd, 0xae, 0x45, 0x82, 0x3f,
  0x64, 0x7b, 0xb9, 0x3f, 0xc2, 0xb7, 0x3a, 0x3f, 0xfd, 0x55, 0x0f, 0xc0,
  0x7b, 0x35, 0x23, 0x3f, 0x5b, 0xda, 0xe8, 0xbe, 0x03, 0x8c, 0x26, 0xc0,
  0xed, 0x58, 0x0d, 0xc0, 0x01, 0x1a, 0xf9, 0xbf, 0xea, 0x37, 0xe9, 0xbf,
  0xd0, 0x90, 0x42, 0x3f, 0xb6, 0xcf, 0x42, 0x3d, 0x95, 0xd5, 0x9d, 0xbf,
  0x31, 0x16, 0x90, 0x3f, 0x26, 0xff, 0xff, 0xff, 0x04, 0x00, 0x00, 0x00,
  0x10, 0x00, 0x00, 0x00, 0x04, 0x17, 0xd0, 0xbe, 0x0d, 0x31, 0x67, 0x3e,
  0xfb, 0x54, 0x98, 0xbd, 0x4a, 0x54, 0x40, 0x3e, 0x42, 0xff, 0xff, 0xff,
  0x04, 0x00, 0x00, 0x00, 0x1c, 0x00, 0x00, 0x00, 0x80, 0xd0, 0xf6, 0x3e,
  0x94, 0xa0, 0x7c, 0x3e, 0x79, 0x32, 0x08, 0x3e, 0x5e, 0x18, 0x2b, 0x3e,
  0x8f, 0x90, 0xd9, 0xbc, 0xc1, 0xb0, 0xcd, 0xbd, 0xd2, 0xe0, 0x50, 0x3e,
  0xe4, 0xf9, 0xff, 0xff, 0xe8, 0xf9, 0xff, 0xff, 0x0f, 0x00, 0x00, 0x00,
  0x4d, 0x4c, 0x49, 0x52, 0x20, 0x43, 0x6f, 0x6e, 0x76, 0x65, 0x72, 0x74,
  0x65, 0x64, 0x2e, 0x00, 0x01, 0x00, 0x00, 0x00, 0x14, 0x00, 0x00, 0x00,
  0x00, 0x00, 0x0e, 0x00, 0x18, 0x00, 0x14, 0x00, 0x10, 0x00, 0x0c, 0x00,
  0x08, 0x00, 0x04, 0x00, 0x0e, 0x00, 0x00, 0x00, 0x14, 0x00, 0x00, 0x00,
  0x1c, 0x00, 0x00, 0x00, 0x34, 0x01, 0x00, 0x00, 0x38, 0x01, 0x00, 0x00,
  0x3c, 0x01, 0x00, 0x00, 0x04, 0x00, 0x00, 0x00, 0x6d, 0x61, 0x69, 0x6e,
  0x00, 0x00, 0x00, 0x00, 0x04, 0x00, 0x00, 0x00, 0xdc, 0x00, 0x00, 0x00,
  0x94, 0x00, 0x00, 0x00, 0x50, 0x00, 0x00, 0x00, 0x14, 0x00, 0x00, 0x00,
  0x00, 0x00, 0x0e, 0x00, 0x1a, 0x00, 0x14, 0x00, 0x10, 0x00, 0x0c, 0x00,
  0x0b, 0x00, 0x04, 0x00, 0x0e, 0x00, 0x00, 0x00, 0x1c, 0x00, 0x00, 0x00,
  0x00, 0x00, 0x00, 0x09, 0x1c, 0x00, 0x00, 0x00, 0x20, 0x00, 0x00, 0x00,
  0x01, 0x00, 0x00, 0x00, 0x00, 0x00, 0x06, 0x00, 0x08, 0x00, 0x04, 0x00,
  0x06, 0x00, 0x00, 0x00, 0x00, 0x00, 0x80, 0x3f, 0x01, 0x00, 0x00, 0x00,
  0x0a, 0x00, 0x00, 0x00, 0x01, 0x00, 0x00, 0x00, 0x09, 0x00, 0x00, 0x00,
  0xce, 0xff, 0xff, 0xff, 0x10, 0x00, 0x00, 0x00, 0x00, 0x00, 0x00, 0x08,
  0x0c, 0x00, 0x00, 0x00, 0x10, 0x00, 0x00, 0x00, 0xac, 0xfa, 0xff, 0xff,
  0x01, 0x00, 0x00, 0x00, 0x09, 0x00, 0x00, 0x00, 0x03, 0x00, 0x00, 0x00,
  0x08, 0x00, 0x00, 0x00, 0x03, 0x00, 0x00, 0x00, 0x02, 0x00, 0x00, 0x00,
  0x00, 0x00, 0x0e, 0x00, 0x14, 0x00, 0x00, 0x00, 0x10, 0x00, 0x0c, 0x00,
  0x0b, 0x00, 0x04, 0x00, 0x0e, 0x00, 0x00, 0x00, 0x10, 0x00, 0x00, 0x00,
  0x00, 0x00, 0x00, 0x08, 0x10, 0x00, 0x00, 0x00, 0x14, 0x00, 0x00, 0x00,
  0xba, 0xff, 0xff, 0xff, 0x00, 0x00, 0x00, 0x01, 0x01, 0x00, 0x00, 0x00,
  0x08, 0x00, 0x00, 0x00, 0x03, 0x00, 0x00, 0x00, 0x07, 0x00, 0x00, 0x00,
  0x04, 0x00, 0x00, 0x00, 0x01, 0x00, 0x00, 0x00, 0x00, 0x00, 0x0e, 0x00,
  0x16, 0x00, 0x00, 0x00, 0x10, 0x00, 0x0c, 0x00, 0x0b, 0x00, 0x04, 0x00,
  0x0e, 0x00, 0x00, 0x00, 0x18, 0x00, 0x00, 0x00, 0x00, 0x00, 0x00, 0x08,
  0x18, 0x00, 0x00, 0x00, 0x1c, 0x00, 0x00, 0x00, 0x00, 0x00, 0x06, 0x00,
  0x08, 0x00, 0x07, 0x00, 0x06, 0x00, 0x00, 0x00, 0x00, 0x00, 0x00, 0x01,
  0x01, 0x00, 0x00, 0x00, 0x07, 0x00, 0x00, 0x00, 0x03, 0x00, 0x00, 0x00,
  0x00, 0x00, 0x00, 0x00, 0x05, 0x00, 0x00, 0x00, 0x06, 0x00, 0x00, 0x00,
  0x01, 0x00, 0x00, 0x00, 0x0a, 0x00, 0x00, 0x00, 0x01, 0x00, 0x00, 0x00,
  0x00, 0x00, 0x00, 0x00, 0x0b, 0x00, 0x00, 0x00, 0x6c, 0x04, 0x00, 0x00,
  0xe8, 0x03, 0x00, 0x00, 0x80, 0x03, 0x00, 0x00, 0x30, 0x03, 0x00, 0x00,
  0xe0, 0x02, 0x00, 0x00, 0x90, 0x02, 0x00, 0x00, 0x24, 0x02, 0x00, 0x00,
  0x84, 0x01, 0x00, 0x00, 0xe4, 0x00, 0x00, 0x00, 0x60, 0x00, 0x00, 0x00,
  0x04, 0x00, 0x00, 0x00, 0xd6, 0xfb, 0xff, 0xff, 0x00, 0x00, 0x00, 0x01,
  0x14, 0x00, 0x00, 0x00, 0x1c, 0x00, 0x00, 0x00, 0x1c, 0x00, 0x00, 0x00,
  0x0b, 0x00, 0x00, 0x00, 0x34, 0x00, 0x00, 0x00, 0x02, 0x00, 0x00, 0x00,
  0xff, 0xff, 0xff, 0xff, 0x04, 0x00, 0x00, 0x00, 0xc0, 0xfb, 0xff, 0xff,
  0x1b, 0x00, 0x00, 0x00, 0x53, 0x74, 0x61, 0x74, 0x65, 0x66, 0x75, 0x6c,
  0x50, 0x61, 0x72, 0x74, 0x69, 0x74, 0x69, 0x6f, 0x6e, 0x65, 0x64, 0x43,
  0x61, 0x6c, 0x6c, 0x5f, 0x31, 0x3a, 0x30, 0x00, 0x02, 0x00, 0x00, 0x00,
  0x01, 0x00, 0x00, 0x00, 0x04, 0x00, 0x00, 0x00, 0x2e, 0xfc, 0xff, 0xff,
  0x00, 0x00, 0x00, 0x01, 0x14, 0x00, 0x00, 0x00, 0x1c, 0x00, 0x00, 0x00,
  0x1c, 0x00, 0x00, 0x00, 0x0a, 0x00, 0x00, 0x00, 0x5c, 0x00, 0x00, 0x00,
  0x02, 0x00, 0x00, 0x00, 0xff, 0xff, 0xff, 0xff, 0x04, 0x00, 0x00, 0x00,
  0x18, 0xfc, 0xff, 0xff, 0x40, 0x00, 0x00, 0x00, 0x73, 0x65, 0x71, 0x75,
  0x65, 0x6e, 0x74, 0x69, 0x61, 0x6c, 0x5f, 0x31, 0x5f, 0x31, 0x2f, 0x64,
  0x65, 0x6e, 0x73, 0x65, 0x5f, 0x35, 0x5f, 0x31, 0x2f, 0x4d, 0x61, 0x74,
  0x4d, 0x75, 0x6c, 0x3b, 0x73, 0x65, 0x71, 0x75, 0x65, 0x6e, 0x74, 0x69,
  0x61, 0x6c, 0x5f, 0x31, 0x5f, 0x31, 0x2f, 0x64, 0x65, 0x6e, 0x73, 0x65,
  0x5f, 0x35, 0x5f, 0x31, 0x2f, 0x42, 0x69, 0x61, 0x73, 0x41, 0x64, 0x64,
  0x00, 0x00, 0x00, 0x00, 0x02, 0x00, 0x00, 0x00, 0x01, 0x00, 0x00, 0x00,
  0x04, 0x00, 0x00, 0x00, 0xae, 0xfc, 0xff, 0xff, 0x00, 0x00, 0x00, 0x01,
  0x14, 0x00, 0x00, 0x00, 0x1c, 0x00, 0x00, 0x00, 0x1c, 0x00, 0x00, 0x00,
  0x09, 0x00, 0x00, 0x00, 0x78, 0x00, 0x00, 0x00, 0x02, 0x00, 0x00, 0x00,
  0xff, 0xff, 0xff, 0xff, 0x07, 0x00, 0x00, 0x00, 0x98, 0xfc, 0xff, 0xff,
  0x5e, 0x00, 0x00, 0x00, 0x73, 0x65, 0x71, 0x75, 0x65, 0x6e, 0x74, 0x69,
  0x61, 0x6c, 0x5f, 0x31, 0x5f, 0x31, 0x2f, 0x64, 0x65, 0x6e, 0x73, 0x65,
  0x5f, 0x34, 0x5f, 0x31, 0x2f, 0x4d, 0x61, 0x74, 0x4d, 0x75, 0x6c, 0x3b,
  0x73, 0x65, 0x71, 0x75, 0x65, 0x6e, 0x74, 0x69, 0x61, 0x6c, 0x5f, 0x31,
  0x5f, 0x31, 0x2f, 0x64, 0x65, 0x6e, 0x73, 0x65, 0x5f, 0x34, 0x5f, 0x31,
  0x2f, 0x52, 0x65, 0x6c, 0x75, 0x3b, 0x73, 0x65, 0x71, 0x75, 0x65, 0x6e,
  0x74, 0x69, 0x61, 0x6c, 0x5f, 0x31, 0x5f, 0x31, 0x2f, 0x64, 0x65, 0x6e,
  0x73, 0x65, 0x5f, 0x34, 0x5f, 0x31, 0x2f, 0x42, 0x69, 0x61, 0x73, 0x41,
  0x64, 0x64, 0x00, 0x00, 0x02, 0x00, 0x00, 0x00, 0x01, 0x00, 0x00, 0x00,
  0x07, 0x00, 0x00, 0x00, 0x4a, 0xfd, 0xff, 0xff, 0x00, 0x00, 0x00, 0x01,
  0x14, 0x00, 0x00, 0x00, 0x1c, 0x00, 0x00, 0x00, 0x1c, 0x00, 0x00, 0x00,
  0x08, 0x00, 0x00, 0x00, 0x78, 0x00, 0x00, 0x00, 0x02, 0x00, 0x00, 0x00,
  0xff, 0xff, 0xff, 0xff, 0x0f, 0x00, 0x00, 0x00, 0x34, 0xfd, 0xff, 0xff,
  0x5e, 0x00, 0x00, 0x00, 0x73, 0x65, 0x71, 0x75, 0x65, 0x6e, 0x74, 0x69,
  0x61, 0x6c, 0x5f, 0x31, 0x5f, 0x31, 0x2f, 0x64, 0x65, 0x6e, 0x73, 0x65,
  0x5f, 0x33, 0x5f, 0x31, 0x2f, 0x4d, 0x61, 0x74, 0x4d, 0x75, 0x6c, 0x3b,
  0x73, 0x65, 0x71, 0x75, 0x65, 0x6e, 0x74, 0x69, 0x61, 0x6c, 0x5f, 0x31,
  0x5f, 0x31, 0x2f, 0x64, 0x65, 0x6e, 0x73, 0x65, 0x5f, 0x33, 0x5f, 0x31,
  0x2f, 0x52, 0x65, 0x6c, 0x75, 0x3b, 0x73, 0x65, 0x71, 0x75, 0x65, 0x6e,
  0x74, 0x69, 0x61, 0x6c, 0x5f, 0x31, 0x5f, 0x31, 0x2f, 0x64, 0x65, 0x6e,
  0x73, 0x65, 0x5f, 0x33, 0x5f, 0x31, 0x2f, 0x42, 0x69, 0x61, 0x73, 0x41,
  0x64, 0x64, 0x00, 0x00, 0x02, 0x00, 0x00, 0x00, 0x01, 0x00, 0x00, 0x00,
  0x0f, 0x00, 0x00, 0x00, 0x66, 0xfe, 0xff, 0xff, 0x00, 0x00, 0x00, 0x01,
  0x10, 0x00, 0x00, 0x00, 0x10, 0x00, 0x00, 0x00, 0x07, 0x00, 0x00, 0x00,
  0x4c, 0x00, 0x00, 0x00, 0xc0, 0xfd, 0xff, 0xff, 0x3e, 0x00, 0x00, 0x00,
  0x73, 0x65, 0x71, 0x75, 0x65, 0x6e, 0x74, 0x69, 0x61, 0x6c, 0x5f, 0x31,
  0x5f, 0x31, 0x2f, 0x64, 0x65, 0x6e, 0x73, 0x65, 0x5f, 0x33, 0x5f, 0x31,
  0x2f, 0x52, 0x65, 0x6c, 0x75, 0x3b, 0x73, 0x65, 0x71, 0x75, 0x65, 0x6e,
  0x74, 0x69, 0x61, 0x6c, 0x5f, 0x31, 0x5f, 0x31, 0x2f, 0x64, 0x65, 0x6e,
  0x73, 0x65, 0x5f, 0x33, 0x5f, 0x31, 0x2f, 0x42, 0x69, 0x61, 0x73, 0x41,
  0x64, 0x64, 0x00, 0x00, 0x01, 0x00, 0x00, 0x00, 0x0f, 0x00, 0x00, 0x00,
  0xce, 0xfe, 0xff, 0xff, 0x00, 0x00, 0x00, 0x01, 0x10, 0x00, 0x00, 0x00,
  0x10, 0x00, 0x00, 0x00, 0x06, 0x00, 0x00, 0x00, 0x2c, 0x00, 0x00, 0x00,
  0x28, 0xfe, 0xff, 0xff, 0x1f, 0x00, 0x00, 0x00, 0x73, 0x65, 0x71, 0x75,
  0x65, 0x6e, 0x74, 0x69, 0x61, 0x6c, 0x5f, 0x31, 0x5f, 0x31, 0x2f, 0x64,
  0x65, 0x6e, 0x73, 0x65, 0x5f, 0x33, 0x5f, 0x31, 0x2f, 0x4d, 0x61, 0x74,
  0x4d, 0x75, 0x6c, 0x00, 0x02, 0x00, 0x00, 0x00, 0x0f, 0x00, 0x00, 0x00,
  0x2a, 0x00, 0x00, 0x00, 0x1a, 0xff, 0xff, 0xff, 0x00, 0x00, 0x00, 0x01,
  0x10, 0x00, 0x00, 0x00, 0x10, 0x00, 0x00, 0x00, 0x05, 0x00, 0x00, 0x00,
  0x2c, 0x00, 0x00, 0x00, 0x74, 0xfe, 0xff, 0xff, 0x1f, 0x00, 0x00, 0x00,
  0x73, 0x65, 0x71, 0x75, 0x65, 0x6e, 0x74, 0x69, 0x61, 0x6c, 0x5f, 0x31,
  0x5f, 0x31, 0x2f, 0x64, 0x65, 0x6e, 0x73, 0x65, 0x5f, 0x34, 0x5f, 0x31,
  0x2f, 0x4d, 0x61, 0x74, 0x4d, 0x75, 0x6c, 0x00, 0x02, 0x00, 0x00, 0x00,
  0x07, 0x00, 0x00, 0x00, 0x0f, 0x00, 0x00, 0x00, 0x66, 0xff, 0xff, 0xff,
  0x00, 0x00, 0x00, 0x01, 0x10, 0x00, 0x00, 0x00, 0x10, 0x00, 0x00, 0x00,
  0x04, 0x00, 0x00, 0x00, 0x2c, 0x00, 0x00, 0x00, 0xc0, 0xfe, 0xff, 0xff,
  0x1f, 0x00, 0x00, 0x00, 0x73, 0x65, 0x71, 0x75, 0x65, 0x6e, 0x74, 0x69,
  0x61, 0x6c, 0x5f, 0x31, 0x5f, 0x31, 0x2f, 0x64, 0x65, 0x6e, 0x73, 0x65,
  0x5f, 0x35, 0x5f, 0x31, 0x2f, 0x4d, 0x61, 0x74, 0x4d, 0x75, 0x6c, 0x00,
  0x02, 0x00, 0x00, 0x00, 0x04, 0x00, 0x00, 0x00, 0x07, 0x00, 0x00, 0x00,
  0xb2, 0xff, 0xff, 0xff, 0x00, 0x00, 0x00, 0x01, 0x10, 0x00, 0x00, 0x00,
  0x10, 0x00, 0x00, 0x00, 0x03, 0x00, 0x00, 0x00, 0x30, 0x00, 0x00, 0x00,
  0x0c, 0xff, 0xff, 0xff, 0x20, 0x00, 0x00, 0x00, 0x73, 0x65, 0x71, 0x75,
  0x65, 0x6e, 0x74, 0x69, 0x61, 0x6c, 0x5f, 0x31, 0x5f, 0x31, 0x2f, 0x64,
  0x65, 0x6e, 0x73, 0x65, 0x5f, 0x35, 0x5f, 0x31, 0x2f, 0x42, 0x69, 0x61,
  0x73, 0x41, 0x64, 0x64, 0x00, 0x00, 0x00, 0x00, 0x01, 0x00, 0x00, 0x00,
  0x04, 0x00, 0x00, 0x00, 0x00, 0x00, 0x16, 0x00, 0x18, 0x00, 0x14, 0x00,
  0x00, 0x00, 0x10, 0x00, 0x0c, 0x00, 0x08, 0x00, 0x00, 0x00, 0x00, 0x00,
  0x00, 0x00, 0x07, 0x00, 0x16, 0x00, 0x00, 0x00, 0x00, 0x00, 0x00, 0x01,
  0x10, 0x00, 0x00, 0x00, 0x10, 0x00, 0x00, 0x00, 0x02, 0x00, 0x00, 0x00,
  0x4c, 0x00, 0x00, 0x00, 0x70, 0xff, 0xff, 0xff, 0x3e, 0x00, 0x00, 0x00,
  0x73, 0x65, 0x71, 0x75, 0x65, 0x6e, 0x74, 0x69, 0x61, 0x6c, 0x5f, 0x31,
  0x5f, 0x31, 0x2f, 0x64, 0x65, 0x6e, 0x73, 0x65, 0x5f, 0x34, 0x5f, 0x31,
  0x2f, 0x52, 0x65, 0x6c, 0x75, 0x3b, 0x73, 0x65, 0x71, 0x75, 0x65, 0x6e,
  0x74, 0x69, 0x61, 0x6c, 0x5f, 0x31, 0x5f, 0x31, 0x2f, 0x64, 0x65, 0x6e,
  0x73, 0x65, 0x5f, 0x34, 0x5f, 0x31, 0x2f, 0x42, 0x69, 0x61, 0x73, 0x41,
  0x64, 0x64, 0x00, 0x00, 0x01, 0x00, 0x00, 0x00, 0x07, 0x00, 0x00, 0x00,
  0x00, 0x00, 0x16, 0x00, 0x1c, 0x00, 0x18, 0x00, 0x00, 0x00, 0x14, 0x00,
  0x10, 0x00, 0x0c, 0x00, 0x00, 0x00, 0x00, 0x00, 0x08, 0x00, 0x07, 0x00,
  0x16, 0x00, 0x00, 0x00, 0x00, 0x00, 0x00, 0x01, 0x14, 0x00, 0x00, 0x00,
  0x20, 0x00, 0x00, 0x00, 0x20, 0x00, 0x00, 0x00, 0x01, 0x00, 0x00, 0x00,
  0x40, 0x00, 0x00, 0x00, 0x02, 0x00, 0x00, 0x00, 0xff, 0xff, 0xff, 0xff,
  0x2a, 0x00, 0x00, 0x00, 0x04, 0x00, 0x04, 0x00, 0x04, 0x00, 0x00, 0x00,
  0x20, 0x00, 0x00, 0x00, 0x73, 0x65, 0x72, 0x76, 0x69, 0x6e, 0x67, 0x5f,
  0x64, 0x65, 0x66, 0x61, 0x75, 0x6c, 0x74, 0x5f, 0x6b, 0x65, 0x72, 0x61,
  0x73, 0x5f, 0x74, 0x65, 0x6e, 0x73, 0x6f, 0x72, 0x5f, 0x37, 0x3a, 0x30,
  0x00, 0x00, 0x00, 0x00, 0x02, 0x00, 0x00, 0x00, 0x01, 0x00, 0x00, 0x00,
  0x2a, 0x00, 0x00, 0x00, 0x02, 0x00, 0x00, 0x00, 0x20, 0x00, 0x00, 0x00,
  0x04, 0x00, 0x00, 0x00, 0xf4, 0xff, 0xff, 0xff, 0x19, 0x00, 0x00, 0x00,
  0x00, 0x00, 0x00, 0x19, 0x0c, 0x00, 0x0c, 0x00, 0x0b, 0x00, 0x00, 0x00,
  0x00, 0x00, 0x04, 0x00, 0x0c, 0x00, 0x00, 0x00, 0x09, 0x00, 0x00, 0x00,
  0x00, 0x00, 0x00, 0x09
};
